{
  "version": "1.0",
  "truncation": null,
  "padding": null,
  "added_tokens": [
    {
      "id": 0,
      "content": "<|endoftext|>",
      "single_word": false,
      "lstrip": false,
      "rstrip": false,
      "normalized": false,
      "special": true
    },
    {
      "id": 1,
      "content": "<|pad|>",
      "single_word": false,
      "lstrip": false,
      "rstrip": false,
      "normalized": false,
      "special": true
    },
    {
      "id": 2,
      "content": "<unk>",
      "single_word": false,
      "lstrip": false,
      "rstrip": false,
      "normalized": false,
      "special": true
    }
  ],
  "normalizer": null,
  "pre_tokenizer": {
    "type": "ByteLevel",
    "add_prefix_space": false,
    "trim_offsets": true,
    "use_regex": true
  },
  "post_processor": {
    "type": "ByteLevel",
    "add_prefix_space": true,
    "trim_offsets": false,
    "use_regex": true
  },
  "decoder": {
    "type": "ByteLevel",
    "add_prefix_space": true,
    "trim_offsets": true,
    "use_regex": true
  },
  "model": {
    "type": "BPE",
    "dropout": null,
    "unk_token": null,
    "continuing_subword_prefix": null,
    "end_of_word_suffix": null,
    "fuse_unk": false,
    "byte_fallback": false,
    "ignore_merges": false,
    "vocab": {
      "<|endoftext|>": 0,
      "<|pad|>": 1,
      "<unk>": 2,
      "!": 3,
      "\"": 4,
      "#": 5,
      "$": 6,
      "%": 7,
      "&": 8,
      "'": 9,
      "(": 10,
      ")": 11,
      "*": 12,
      "+": 13,
      ",": 14,
      "-": 15,
      ".": 16,
      "/": 17,
      "0": 18,
      "1": 19,
      "2": 20,
      "3": 21,
      "4": 22,
      "5": 23,
      "6": 24,
      "7": 25,
      "8": 26,
      "9": 27,
      ":": 28,
      ";": 29,
      "<": 30,
      "=": 31,
      ">": 32,
      "?": 33,
      "@": 34,
      "A": 35,
      "B": 36,
      "C": 37,
      "D": 38,
      "E": 39,
      "F": 40,
      "G": 41,
      "H": 42,
      "I": 43,
      "J": 44,
      "K": 45,
      "L": 46,
      "M": 47,
      "N": 48,
      "O": 49,
      "P": 50,
      "Q": 51,
      "R": 52,
      "S": 53,
      "T": 54,
      "U": 55,
      "V": 56,
      "W": 57,
      "X": 58,
      "Y": 59,
      "Z": 60,
      "[": 61,
      "\\": 62,
      "]": 63,
      "^": 64,
      "_": 65,
      "`": 66,
      "a": 67,
      "b": 68,
      "c": 69,
      "d": 70,
      "e": 71,
      "f": 72,
      "g": 73,
      "h": 74,
      "i": 75,
      "j": 76,
      "k": 77,
      "l": 78,
      "m": 79,
      "n": 80,
      "o": 81,
      "p": 82,
      "q": 83,
      "r": 84,
      "s": 85,
      "t": 86,
      "u": 87,
      "v": 88,
      "w": 89,
      "x": 90,
      "y": 91,
      "z": 92,
      "{": 93,
      "|": 94,
      "}": 95,
      "~": 96,
      "¡": 97,
      "¢": 98,
      "£": 99,
      "¤": 100,
      "¥": 101,
      "¦": 102,
      "§": 103,
      "¨": 104,
      "©": 105,
      "ª": 106,
      "«": 107,
      "¬": 108,
      "®": 109,
      "°": 110,
      "±": 111,
      "²": 112,
      "³": 113,
      "´": 114,
      "µ": 115,
      "¶": 116,
      "·": 117,
      "¸": 118,
      "¹": 119,
      "¼": 120,
      "½": 121,
      "¿": 122,
      "Â": 123,
      "Ã": 124,
      "Ä": 125,
      "Ì": 126,
      "Í": 127,
      "Ï": 128,
      "Ð": 129,
      "â": 130,
      "ï": 131,
      "ð": 132,
      "Ċ": 133,
      "Ġ": 134,
      "Ģ": 135,
      "ģ": 136,
      "Ĥ": 137,
      "ĥ": 138,
      "Ħ": 139,
      "ħ": 140,
      "Ĩ": 141,
      "ĩ": 142,
      "Ī": 143,
      "ī": 144,
      "Ĭ": 145,
      "ĭ": 146,
      "Į": 147,
      "į": 148,
      "ı": 149,
      "Ĳ": 150,
      "ĳ": 151,
      "Ĵ": 152,
      "ĵ": 153,
      "Ķ": 154,
      "ķ": 155,
      "ĸ": 156,
      "Ĺ": 157,
      "ĺ": 158,
      "Ļ": 159,
      "ļ": 160,
      "ľ": 161,
      "ŀ": 162,
      "Ł": 163,
      "ł": 164,
      "er": 165,
      "on": 166,
      "ch": 167,
      "in": 168,
      "as": 169,
      "or": 170,
      "en": 171,
      "Ġs": 172,
      "ver": 173,
      "Ġt": 174,
      "at": 175,
      "Ġa": 176,
      "is": 177,
      "Ġth": 178,
      "ord": 179,
      "Ġm": 180,
      "Ġh": 181,
      "ly": 182,
      "Ġd": 183,
      "Ġo": 184,
      "lord": 185,
      "ro": 186,
      "Ġe": 187,
      "Ġn": 188,
      "Ġw": 189,
      "Ġof": 190,
      "ks": 191,
      "an": 192,
      "kro": 193,
      "kroks": 194,
      "zon": 195,
      "lykroks": 196,
      "zonlykroks": 197,
      "ing": 198,
      "em": 199,
      "ich": 200,
      "Ġb": 201,
      "al": 202,
      "ou": 203,
      "Ġc": 204,
      "ion": 205,
      "kn": 206,
      "ik": 207,
      "ie": 208,
      "very": 209,
      "las": 210,
      "ation": 211,
      "vers": 212,
      "erver": 213,
      "iklas": 214,
      "Ġthe": 215,
      "Ġserver": 216,
      "niklas": 217,
      "Ġcon": 218,
      "Ġmem": 219,
      "You": 220,
      "versation": 221,
      "Ġthis": 222,
      "Ġevery": 223,
      "Ġconversation": 224,
      "nd": 225,
      "le": 226,
      "re": 227,
      "ann": 228,
      "Ġg": 229,
      "ad": 230,
      "lo": 231,
      "ap": 232,
      "el": 233,
      "ĠD": 234,
      "ber": 235,
      "app": 236,
      "ko": 237,
      "ur": 238,
      "Ġp": 239,
      "ll": 240,
      "Ġha": 241,
      "Ġin": 242,
      "ading": 243,
      "isc": 244,
      "Ġbe": 245,
      "loading": 246,
      "ja": 247,
      "iscord": 248,
      "ĠM": 249,
      "lordloading": 250,
      "tt": 251,
      "st": 252,
      "id": 253,
      "ach": 254,
      "ow": 255,
      "th": 256,
      "Ġst": 257,
      "ct": 258,
      "one": 259,
      "fe": 260,
      "<@": 261,
      "ast": 262,
      "appe": 263,
      "kob": 264,
      "ve": 265,
      "knappe": 266,
      "jakob": 267,
      "ue": 268,
      "Ġsa": 269,
      "ho": 270,
      "om": 271,
      "46": 272,
      "Ġand": 273,
      "Ġ<@": 274,
      "ally": 275,
      "Ġch": 276,
      "ont": 277,
      "Ġkn": 278,
      "77": 279,
      "atch": 280,
      "Ġall": 281,
      "Ġper": 282,
      "yle": 283,
      "ows": 284,
      "annel": 285,
      "87": 286,
      "Ġnat": 287,
      "ory": 288,
      "Ġchannel": 289,
      "Ġhas": 290,
      "ĠDiscord": 291,
      "Ġmemory": 292,
      "Ġstyle": 293,
      "Cont": 294,
      "ĠYou": 295,
      "Ġthat": 296,
      "Ġbeen": 297,
      "ĠMatch": 298,
      "inue": 299,
      "Ġtone": 300,
      "Ġare": 301,
      "Ġwho": 302,
      "Ġhave": 303,
      "thing": 304,
      "fect": 305,
      "Ġsaid": 306,
      "Ġchannels": 307,
      "Continue": 308,
      "Ġmember": 309,
      "Ġeverything": 310,
      "urally": 311,
      "Ġknows": 312,
      "Ġperfect": 313,
      "Ġnaturally": 314,
      "ps": 315,
      "Ġich": 316,
      "it": 317,
      ":/": 318,
      "bast": 319,
      "isas": 320,
      "bastisas": 321,
      "://": 322,
      "ttps": 323,
      "ut": 324,
      "if": 325,
      "71": 326,
      "13": 327,
      "Ġu": 328,
      "Ġhttps": 329,
      "gif": 330,
      "us": 331,
      "com": 332,
      "ar": 333,
      "et": 334,
      "Ġk": 335,
      "ir": 336,
      "ein": 337,
      "ĠS": 338,
      "38": 339,
      "ĠĠ": 340,
      "ck": 341,
      "Ã¼": 342,
      "eh": 343,
      "es": 344,
      "ten": 345,
      "40": 346,
      "Ġf": 347,
      "28": 348,
      "ĠA": 349,
      "Ġau": 350,
      "ĠI": 351,
      "un": 352,
      "66": 353,
      "Ã¤": 354,
      "45": 355,
      "ĠW": 356,
      "icht": 357,
      "Ġis": 358,
      "ent": 359,
      "mm": 360,
      "90": 361,
      "och": 362,
      "Ġda": 363,
      "Ġz": 364,
      "Ġdas": 365,
      "vie": 366,
      "Ġein": 367,
      "51": 368,
      "der": 369,
      "26": 370,
      "ra": 371,
      "Ġsch": 372,
      "ig": 373,
      "08": 374,
      "lu": 375,
      "4687": 376,
      "50": 377,
      "Ġdie": 378,
      "ĠB": 379,
      "19": 380,
      "view": 381,
      "12": 382,
      "tenor": 383,
      "Ġso": 384,
      "gen": 385,
      "Ġund": 386,
      "Ġnicht": 387,
      "zy": 388,
      "be": 389,
      "Ġnoch": 390,
      "ge": 391,
      "das": 392,
      "Ġj": 393,
      "Ġv": 394,
      "luzy": 395,
      "luzyy": 396,
      "att": 397,
      "43": 398,
      "466": 399,
      "ben": 400,
      "288": 401,
      "ĠIch": 402,
      "5113": 403,
      "ed": 404,
      "10": 405,
      "7771": 406,
      "45466": 407,
      "08288": 408,
      "511308288": 409,
      "7771511308288": 410,
      "454667771511308288": 411,
      "ment": 412,
      "Ġi": 413,
      "Ġder": 414,
      "Ġl": 415,
      "94": 416,
      "au": 417,
      "achment": 418,
      "attachment": 419,
      "ĠK": 420,
      "ei": 421,
      "Ġist": 422,
      "Ã¶": 423,
      "hr": 424,
      "63": 425,
      "Ġauch": 426,
      "eut": 427,
      "discord": 428,
      "sch": 429,
      "Ġdu": 430,
      "ĠH": 431,
      "ĠN": 432,
      "Ġzu": 433,
      "ĠG": 434,
      "ier": 435,
      "attachments": 436,
      "discordapp": 437,
      "06": 438,
      "zt": 439,
      "de": 440,
      "ĠJ": 441,
      "ter": 442,
      "76": 443,
      "Ġmach": 444,
      "52": 445,
      "Ġdann": 446,
      "Ġr": 447,
      "ung": 448,
      "und": 449,
      "Ġaber": 450,
      "Ġwas": 451,
      "Ġden": 452,
      "20": 453,
      "komm": 454,
      "090": 455,
      "Ġmal": 456,
      "ĠT": 457,
      "te": 458,
      "Ġwie": 459,
      "Ã¼r": 460,
      "lich": 461,
      "ĠE": 462,
      "93": 463,
      "872": 464,
      "ĠF": 465,
      "18": 466,
      "Ġgeh": 467,
      "Ġan": 468,
      "Ġbin": 469,
      "ind": 470,
      "Ġer": 471,
      "eute": 472,
      "78": 473,
      "384687": 474,
      "404687": 475,
      "Ġauf": 476,
      "090404687": 477,
      "384687090404687": 478,
      "384687090404687872": 479,
      "Ġwir": 480,
      "etzt": 481,
      "Ġmit": 482,
      "eit": 483,
      "Ġre": 484,
      "Ġge": 485,
      "Ġhab": 486,
      "dn": 487,
      "ĠR": 488,
      "ag": 489,
      "enn": 490,
      "ĠL": 491,
      "Ġal": 492,
      "ĠP": 493,
      "oo": 494,
      "uss": 495,
      "16": 496,
      "cdn": 497,
      "alt": 498,
      "Ġne": 499,
      "17": 500,
      "55": 501,
      "866": 502,
      "Ġkomm": 503,
      "Ġoder": 504,
      "Ġbis": 505,
      "Ġkann": 506,
      "2606": 507,
      "619": 508,
      "ss": 509,
      "iel": 510,
      "6371": 511,
      "od": 512,
      "ĠU": 513,
      "so": 514,
      "Ġsp": 515,
      "Ġja": 516,
      "8666371": 517,
      "um": 518,
      "Ġun": 519,
      "95": 520,
      "3843": 521,
      "26068666371": 522,
      "61926068666371": 523,
      "384361926068666371": 524,
      "ðŁ": 525,
      "140": 526,
      "eg": 527,
      "30": 528,
      "Ġmein": 529,
      "Ġmir": 530,
      "Ġjetzt": 531,
      "uch": 532,
      "Ġheute": 533,
      "and": 534,
      "isch": 535,
      "Ġaus": 536,
      "am": 537,
      "ot": 538,
      "leich": 539,
      "58": 540,
      "ĠĠĠ": 541,
      "ern": 542,
      "ÃŁ": 543,
      "ib": 544,
      "Ġ1": 545,
      "il": 546,
      "Ġes": 547,
      "im": 548,
      "se": 549,
      "ab": 550,
      "Ġwieder": 551,
      "23": 552,
      "Ġmuss": 553,
      "Ġgeht": 554,
      "ehr": 555,
      "Ġle": 556,
      "..": 557,
      "ĠfÃ¼r": 558,
      "ic": 559,
      "ack": 560,
      "98": 561,
      "mal": 562,
      "Ġx": 563,
      "Ġschon": 564,
      "Ġhat": 565,
      "96": 566,
      "net": 567,
      "ha": 568,
      "Ġvon": 569,
      "ĠC": 570,
      "Ġgleich": 571,
      "ill": 572,
      "ĠO": 573,
      "ia": 574,
      "Ġwar": 575,
      "bend": 576,
      "14": 577,
      "22": 578,
      "ĠSt": 579,
      "ft": 580,
      "ahr": 581,
      "fach": 582,
      "Ġkein": 583,
      "kt": 584,
      "Ġab": 585,
      "Ġman": 586,
      "Ġwenn": 587,
      "ell": 588,
      "112": 589,
      "ay": 590,
      "ĠV": 591,
      "her": 592,
      "cat": 593,
      "Ġnur": 594,
      "itt": 595,
      "ol": 596,
      "ĠZ": 597,
      "all": 598,
      "Ġges": 599,
      "ts": 600,
      "Ġsich": 601,
      "14050": 602,
      "op": 603,
      "you": 604,
      "hn": 605,
      "Ġeinfach": 606,
      "Ġgut": 607,
      "56": 608,
      "unde": 609,
      "ĠðŁ": 610,
      "48": 611,
      "ock": 612,
      "Ġmich": 613,
      "47": 614,
      "Ġim": 615,
      "Ã¶n": 616,
      "933": 617,
      "394": 618,
      "IN": 619,
      "Ġver": 620,
      "Ġwer": 621,
      "âĢ": 622,
      "Ġwo": 623,
      "770": 624,
      "Ġsind": 625,
      "edia": 626,
      "Ġbei": 627,
      "inn": 628,
      "Ġnet": 629,
      "ade": 630,
      "Ġerst": 631,
      "00": 632,
      "ip": 633,
      "Ġ@": 634,
      "Ġum": 635,
      "ff": 636,
      "Ġlan": 637,
      "Ġgr": 638,
      "07": 639,
      "Ġsie": 640,
      "Ġ?": 641,
      "ĠSch": 642,
      "1394": 643,
      "media": 644,
      "1121394": 645,
      "93376": 646,
      "394770": 647,
      "112139493376": 648,
      "394770112139493376": 649,
      "ke": 650,
      "hl": 651,
      "zz": 652,
      "57": 653,
      "ce": 654,
      "every": 655,
      "Ġhalt": 656,
      "Ġms": 657,
      "Ġdich": 658,
      "eil": 659,
      "everyone": 660,
      "iert": 661,
      "Ġmin": 662,
      "33": 663,
      "he": 664,
      "ick": 665,
      "29": 666,
      "Ġmachen": 667,
      "88": 668,
      "Ġdem": 669,
      "Ġran": 670,
      "mod": 671,
      "les": 672,
      "ert": 673,
      "auen": 674,
      "Ġnach": 675,
      "ĠDas": 676,
      "sten": 677,
      "piel": 678,
      "Ġmehr": 679,
      "https": 680,
      "me": 681,
      "ix": 682,
      "anz": 683,
      "Ġvor": 684,
      "Ġihr": 685,
      "ĠJa": 686,
      "pack": 687,
      "uck": 688,
      "219": 689,
      "Ġwird": 690,
      "53": 691,
      "Ġ10": 692,
      "ĠxD": 693,
      "Ġnen": 694,
      "Ġ2": 695,
      "ass": 696,
      "gt": 697,
      "uk": 698,
      "97": 699,
      "la": 700,
      "ee": 701,
      "ww": 702,
      "end": 703,
      "Ã¼ber": 704,
      "uf": 705,
      "ine": 706,
      "Ġdein": 707,
      "ĠĠĠĠ": 708,
      "Ã¶nn": 709,
      "Ġam": 710,
      "acht": 711,
      "mmer": 712,
      "Ġdass": 713,
      "ste": 714,
      "eiÃŁ": 715,
      "Ġra": 716,
      "ĠAbend": 717,
      "44": 718,
      "ĠIn": 719,
      "altv": 720,
      "egaltv": 721,
      "Ã¤ter": 722,
      "hh": 723,
      "out": 724,
      "ĠWas": 725,
      "ĠBin": 726,
      "...": 727,
      "sen": 728,
      "chen": 729,
      "beit": 730,
      "we": 731,
      "Ġeig": 732,
      "ate": 733,
      "ĠKom": 734,
      "Ġuns": 735,
      "42": 736,
      "ank": 737,
      "put": 738,
      "qu": 739,
      "ĠkÃ¶nn": 740,
      "738": 741,
      "91": 742,
      "ul": 743,
      "Ġar": 744,
      "ĠAber": 745,
      "ĠUnd": 746,
      "modpack": 747,
      "Ġhaben": 748,
      "612": 749,
      "Ġgen": 750,
      "rauch": 751,
      "os": 752,
      "Ġdr": 753,
      "modpackmodpack": 754,
      "den": 755,
      "zen": 756,
      "ĺĤ": 757,
      "Ġhast": 758,
      "8790": 759,
      "lau": 760,
      "36": 761,
      "Ġpro": 762,
      "ain": 763,
      "ug": 764,
      "Ġalso": 765,
      "Ġspiel": 766,
      "Ġwann": 767,
      "ĠWie": 768,
      "eme": 769,
      "TE": 770,
      "llt": 771,
      "los": 772,
      "fn": 773,
      "tra": 774,
      "Ġsein": 775,
      "788790": 776,
      "14050788790": 777,
      "219612": 778,
      "14050788790219612": 779,
      "1405078879021961226": 780,
      "27": 781,
      "aa": 782,
      "ht": 783,
      "act": 784,
      "age": 785,
      "509": 786,
      "15": 787,
      "sp": 788,
      "ĠÃ¼ber": 789,
      "ĠAl": 790,
      "Ġob": 791,
      "ocken": 792,
      "eb": 793,
      "Ġgib": 794,
      "ehen": 795,
      "war": 796,
      "Ġ-": 797,
      "ak": 798,
      "bo": 799,
      "no": 800,
      "tr": 801,
      "bei": 802,
      "sl": 803,
      "Ġ(": 804,
      "Ġwen": 805,
      "iv": 806,
      "ĊĠĠĠ": 807,
      "ungs": 808,
      "output": 809,
      "fen": 810,
      "kind": 811,
      "ne": 812,
      "Ġvie": 813,
      "bow": 814,
      "Ġ*": 815,
      "ispiel": 816,
      "Ġhal": 817,
      "Ġkeine": 818,
      "CA": 819,
      "pl": 820,
      "Ġdir": 821,
      "3055": 822,
      "ger": 823,
      "orgen": 824,
      "unge": 825,
      "ĠRe": 826,
      "Ġeine": 827,
      "25": 828,
      "476": 829,
      "728": 830,
      "cbe": 831,
      "ist": 832,
      "Ġhier": 833,
      "fncbe": 834,
      "ispielkind": 835,
      "fncbeispielkind": 836,
      "Ġbrauch": 837,
      "ĠNach": 838,
      "Ġzum": 839,
      "Ġals": 840,
      "ssen": 841,
      "99": 842,
      "ĠDie": 843,
      "TA": 844,
      "Ġwenig": 845,
      "sc": 846,
      "ĠSp": 847,
      "Ġsoll": 848,
      "523": 849,
      "Ġeinen": 850,
      "Ġlang": 851,
      "Ġeher": 852,
      "Ġganz": 853,
      "ahren": 854,
      "ere": 855,
      "1720": 856,
      "Ġlange": 857,
      "up": 858,
      "ort": 859,
      "ze": 860,
      "Ġmeine": 861,
      "ieren": 862,
      "590": 863,
      "Ġgem": 864,
      "38509": 865,
      "ĠWir": 866,
      "eim": 867,
      "ĠHeute": 868,
      "73888": 869,
      "Ġviel": 870,
      "305573888": 871,
      "1720305573888": 872,
      "385091720305573888": 873,
      "03": 874,
      "Ġvers": 875,
      "ĠwÃ¤": 876,
      "ute": 877,
      "schein": 878,
      "rei": 879,
      "7152": 880,
      "ĠspÃ¤ter": 881,
      "9552": 882,
      "Ġgesch": 883,
      "14050728": 884,
      "4767152": 885,
      "140507284767152": 886,
      "1405072847671529552": 887,
      "meme": 888,
      "ry": 889,
      "rÃ¼": 890,
      "Ġraus": 891,
      "11": 892,
      "ah": 893,
      "cy": 894,
      "mo": 895,
      "Ġ=": 896,
      "Ġnix": 897,
      "1618": 898,
      "CC": 899,
      "9550": 900,
      "ische": 901,
      "ld": 902,
      "ru": 903,
      "Ġdoch": 904,
      "Ġger": 905,
      "ny": 906,
      "rt": 907,
      "Ġ:": 908,
      "Ġko": 909,
      "elt": 910,
      "Ġkommt": 911,
      "73": 912,
      "719550": 913,
      "eht": 914,
      "50590": 915,
      "52350590": 916,
      "71955052350590": 917,
      "719550523505901618": 918,
      "cht": 919,
      "Ġmacht": 920,
      "aut": 921,
      "Ġir": 922,
      "Ġdur": 923,
      "ĠweiÃŁ": 924,
      "low": 925,
      "Ġbist": 926,
      "Ġgrade": 927,
      "Ġher": 928,
      "Ġheut": 929,
      "ĠSo": 930,
      "gend": 931,
      "Ġdenn": 932,
      "86": 933,
      "RA": 934,
      "tu": 935,
      "Ġschauen": 936,
      "rie": 937,
      "Ġabend": 938,
      "54": 939,
      "bst": 940,
      "Ġ\"": 941,
      "iss": 942,
      "Ġmorgen": 943,
      "Ġwill": 944,
      "art": 945,
      "entlich": 946,
      "ðŁĺĤ": 947,
      "Ã¤n": 948,
      "amm": 949,
      "Ġfe": 950,
      "emand": 951,
      "Ġhaha": 952,
      "ĠWo": 953,
      "Ġimmer": 954,
      "ĠEin": 955,
      "``": 956,
      "Ġdes": 957,
      "Ġjz": 958,
      "ĠDer": 959,
      "ess": 960,
      "iz": 961,
      "Ġ3": 962,
      "ainbow": 963,
      "02": 964,
      "RE": 965,
      "Ġ6": 966,
      "ang": 967,
      "bl": 968,
      "min": 969,
      "ise": 970,
      "unny": 971,
      "Ġirgend": 972,
      "Ġdurch": 973,
      "mp": 974,
      "to": 975,
      "Ġ5": 976,
      "ant": 977,
      "ĠDu": 978,
      "esch": 979,
      "TRA": 980,
      "po": 981,
      "Ġeuch": 982,
      "ĠStunde": 983,
      "ING": 984,
      "âĢĻ": 985,
      "Ġspielen": 986,
      "92": 987,
      "br": 988,
      "ma": 989,
      "Ġhin": 990,
      "Ġex": 991,
      "Ã¤t": 992,
      "ĠFinn": 993,
      "ild": 994,
      "MO": 995,
      "ust": 996,
      "ĠKomme": 997,
      "Ġgemacht": 998,
      "04": 999,
      "21": 1000,
      "Ġ[": 1001,
      "ice": 1002,
      "Ġgerade": 1003,
      "imm": 1004,
      "og": 1005,
      "lock": 1006,
      "ĠDa": 1007,
      "ex": 1008,
      "Ġ4": 1009,
      "ĠhÃ¤": 1010,
      "www": 1011,
      "Ich": 1012,
      "men": 1013,
      "pe": 1014,
      "unden": 1015,
      "37": 1016,
      "ive": 1017,
      "ien": 1018,
      "suk": 1019,
      "asa": 1020,
      "Ġgo": 1021,
      "tsuk": 1022,
      "INING": 1023,
      "REMO": 1024,
      "Ġirgendw": 1025,
      "TRAINING": 1026,
      "suki": 1027,
      "tsukasa": 1028,
      "REMOTE": 1029,
      "'s": 1030,
      "my": 1031,
      "pp": 1032,
      "ring": 1033,
      "Ġ8": 1034,
      "Ġglau": 1035,
      "under": 1036,
      "Ġarbeit": 1037,
      "Ġ/": 1038,
      "Ġ12": 1039,
      "ard": 1040,
      "Ġvllt": 1041,
      "Ġerstmal": 1042,
      "72": 1043,
      "kill": 1044,
      "Ġon": 1045,
      "ĠHab": 1046,
      "ĠJetzt": 1047,
      "ĠJunge": 1048,
      "ame": 1049,
      "youtu": 1050,
      "aus": 1051,
      "Ġdiese": 1052,
      "Ġjo": 1053,
      "Ġbissl": 1054,
      "Ġunter": 1055,
      "ball": 1056,
      "Ġdra": 1057,
      "ald": 1058,
      "alk": 1059,
      "ĠRainbow": 1060,
      "ĠmÃ¼": 1061,
      "ĠAr": 1062,
      "ĠLe": 1063,
      "09": 1064,
      "ez": 1065,
      "ner": 1066,
      "ink": 1067,
      "Ġdan": 1068,
      "Ġkur": 1069,
      "Ġdabei": 1070,
      "Ġgef": 1071,
      "itte": 1072,
      "hnung": 1073,
      "Ġmod": 1074,
      "Ġweg": 1075,
      "Ġander": 1076,
      "Ġgehen": 1077,
      "Ġalle": 1078,
      "haus": 1079,
      "Ġwarum": 1080,
      "ĠAlso": 1081,
      "83": 1082,
      "GA": 1083,
      "mit": 1084,
      "nt": 1085,
      "ob": 1086,
      "oc": 1087,
      "Ġner": 1088,
      "ale": 1089,
      "ĠEr": 1090,
      "Ġalles": 1091,
      "ahrschein": 1092,
      "ahrscheinlich": 1093,
      "62": 1094,
      "Ġ20": 1095,
      "Ġnich": 1096,
      "Ġbo": 1097,
      "stern": 1098,
      "ichtig": 1099,
      "Ġgibt": 1100,
      "are": 1101,
      "ire": 1102,
      "Ġbekomm": 1103,
      "Ã¼n": 1104,
      "Ġlie": 1105,
      "Ġkomme": 1106,
      "ĠkÃ¶nnen": 1107,
      "Ġ|": 1108,
      "ĠAn": 1109,
      "ĠĠĠĠĠĠĠ": 1110,
      "modpackmodpackmodpackmodpack": 1111,
      "89": 1112,
      "Ġlas": 1113,
      "Ġlos": 1114,
      "atisch": 1115,
      "Ġnem": 1116,
      "ĠNe": 1117,
      "aar": 1118,
      "pt": 1119,
      "ses": 1120,
      "Ġent": 1121,
      "Ġlu": 1122,
      "Ġfert": 1123,
      "Ġmache": 1124,
      "rr": 1125,
      "Ġmus": 1126,
      "ĠhÃ¶": 1127,
      "Ġzw": 1128,
      "iere": 1129,
      "ĠJo": 1130,
      "Ġkurz": 1131,
      "Ġy": 1132,
      "ĠwÃ¼r": 1133,
      "Ã¼ck": 1134,
      "ungen": 1135,
      "Ġange": 1136,
      "Ġeigentlich": 1137,
      "fa": 1138,
      "uu": 1139,
      "Ġson": 1140,
      "Ġweit": 1141,
      "ster": 1142,
      "genbo": 1143,
      "Ġkommen": 1144,
      "ĠUn": 1145,
      "Ġfertig": 1146,
      "genbogen": 1147,
      "che": 1148,
      "Ġsh": 1149,
      "Ġsagt": 1150,
      "your": 1151,
      "stens": 1152,
      "Ġdrauf": 1153,
      "32": 1154,
      "af": 1155,
      "cc": 1156,
      "pd": 1157,
      "orm": 1158,
      "ĠBe": 1159,
      "Ġ11": 1160,
      "Ġgrad": 1161,
      "74": 1162,
      "ually": 1163,
      "Ġse": 1164,
      "Ġsagen": 1165,
      "Ġkannst": 1166,
      "ĠZeit": 1167,
      "ĠNachr": 1168,
      "34": 1169,
      "Ġen": 1170,
      "Ġgar": 1171,
      "ider": 1172,
      "Ġfuck": 1173,
      "ĠWar": 1174,
      "ĠKann": 1175,
      "rank": 1176,
      "tw": 1177,
      "xim": 1178,
      "Ġ0": 1179,
      "ehe": 1180,
      "Ã¤ch": 1181,
      "atte": 1182,
      "ĠEs": 1183,
      "oooo": 1184,
      "ĠkÃ¶nnte": 1185,
      "lt": 1186,
      "utt": 1187,
      "ys": 1188,
      "Ġsehr": 1189,
      "angen": 1190,
      "ĠLu": 1191,
      "sol": 1192,
      "gal": 1193,
      "hen": 1194,
      "io": 1195,
      "erung": 1196,
      "asst": 1197,
      "ief": 1198,
      "ress": 1199,
      "Ġzocken": 1200,
      "Ġvom": 1201,
      "ĠZocken": 1202,
      "zzzz": 1203,
      "oll": 1204,
      "ĠâĢ": 1205,
      "Ġdar": 1206,
      "Ġnot": 1207,
      "Ġweil": 1208,
      "the": 1209,
      "Ġnochmal": 1210,
      "100": 1211,
      "schen": 1212,
      "amp": 1213,
      "64": 1214,
      "82": 1215,
      "IM": 1216,
      "dem": 1217,
      "ken": 1218,
      "wer": 1219,
      "ide": 1220,
      "Ġjemand": 1221,
      "hlt": 1222,
      "Ġ->": 1223,
      "onk": 1224,
      "eine": 1225,
      "ĠGeht": 1226,
      "Ġrein": 1227,
      "Ġmeinen": 1228,
      "hne": 1229,
      "âĢľ": 1230,
      "youtube": 1231,
      "aft": 1232,
      "Ġpaar": 1233,
      "ctually": 1234,
      "ĠIm": 1235,
      "Ġgew": 1236,
      "Ġ15": 1237,
      "Ġdeine": 1238,
      "ĠâĢŀ": 1239,
      "fÃ¼r": 1240,
      "funny": 1241,
      "man": 1242,
      "uer": 1243,
      "ure": 1244,
      "ĊĠ": 1245,
      "Ġtra": 1246,
      "Ġnh": 1247,
      "reib": 1248,
      "ĠBot": 1249,
      "ĠOder": 1250,
      "ĠVor": 1251,
      "==": 1252,
      "heim": 1253,
      "Ġte": 1254,
      "atz": 1255,
      "Ġme": 1256,
      "its": 1257,
      "ĠGib": 1258,
      "reiben": 1259,
      "ĠhÃ¤tt": 1260,
      "Ġweiter": 1261,
      "get": 1262,
      "hm": 1263,
      "pen": 1264,
      "ore": 1265,
      "ath": 1266,
      "Ġhatte": 1267,
      "Ġwur": 1268,
      "Ġbauen": 1269,
      "Ã¤nd": 1270,
      "Ġdamit": 1271,
      "dern": 1272,
      "Ġanno": 1273,
      "Ġgestern": 1274,
      "ĠPro": 1275,
      "bre": 1276,
      "Ġ+": 1277,
      "Ġlo": 1278,
      "Ġwahrscheinlich": 1279,
      "134": 1280,
      "Ġfahren": 1281,
      "109": 1282,
      "LL": 1283,
      "bb": 1284,
      "ef": 1285,
      "Ġ<": 1286,
      "Ġding": 1287,
      "Ġber": 1288,
      "Ġbald": 1289,
      "apt": 1290,
      "Ġping": 1291,
      "Ġrichtig": 1292,
      "1755": 1293,
      "Ġwoll": 1294,
      "ĠwÃ¤re": 1295,
      "OO": 1296,
      "TT": 1297,
      "hin": 1298,
      "hal": 1299,
      "ile": 1300,
      "ked": 1301,
      "Ġ30": 1302,
      "Ġnie": 1303,
      "stell": 1304,
      "ird": 1305,
      "ĠNachricht": 1306,
      "80": 1307,
      "ith": 1308,
      "ta": 1309,
      "ude": 1310,
      "Ġyou": 1311,
      "react": 1312,
      "Ġgel": 1313,
      "Ġkl": 1314,
      "Ġlet": 1315,
      "inne": 1316,
      "Ġdanach": 1317,
      "ĠwÃ¼rde": 1318,
      "form": 1319,
      "nell": 1320,
      "si": 1321,
      "tl": 1322,
      "Ġ9": 1323,
      "Ġbot": 1324,
      "Ġeinem": 1325,
      "ĠBru": 1326,
      "eutsch": 1327,
      "ĠGut": 1328,
      "Ġleben": 1329,
      "Ġkeinen": 1330,
      "rieben": 1331,
      "Ġglaube": 1332,
      "145": 1333,
      "Ġactually": 1334,
      "Ġbitte": 1335,
      "Ġstunde": 1336,
      "ĠVer": 1337,
      "play": 1338,
      "bs": 1339,
      "bt": 1340,
      "ep": 1341,
      "immer": 1342,
      "zw": 1343,
      "zeit": 1344,
      "ase": 1345,
      "Ġsel": 1346,
      "Ġaqu": 1347,
      "Ġma": 1348,
      "rot": 1349,
      "roxim": 1350,
      "Ġbesch": 1351,
      "ĠMan": 1352,
      "283": 1353,
      "Ġzeit": 1354,
      "Ġlern": 1355,
      "930": 1356,
      "ĠFre": 1357,
      "Ġgegen": 1358,
      "ĠðŁĺĤ": 1359,
      "Ġwerde": 1360,
      "Ġwerden": 1361,
      "fr": 1362,
      "fall": 1363,
      "gem": 1364,
      "gar": 1365,
      "heit": 1366,
      "ode": 1367,
      "pr": 1368,
      "tro": 1369,
      "zu": 1370,
      "ormal": 1371,
      "Ġna": 1372,
      "ĠDann": 1373,
      "Ġke": 1374,
      "Ġschnell": 1375,
      "schaft": 1376,
      "Ġgenau": 1377,
      "ĠLucy": 1378,
      "171": 1379,
      "150": 1380,
      "940": 1381,
      "con": 1382,
      "Ġins": 1383,
      "achen": 1384,
      "etz": 1385,
      "Ġschaut": 1386,
      "ight": 1387,
      "immt": 1388,
      "pdate": 1389,
      "Ġdarf": 1390,
      "155": 1391,
      "EE": 1392,
      "ong": 1393,
      "Ġtalk": 1394,
      "love": 1395,
      "Ġbess": 1396,
      "ĠAb": 1397,
      "450": 1398,
      "ĠWer": 1399,
      "kommen": 1400,
      "Ġneue": 1401,
      "roximation": 1402,
      "113": 1403,
      "ph": 1404,
      "wik": 1405,
      "watch": 1406,
      "Ġsin": 1407,
      "ite": 1408,
      "1371": 1409,
      "ĠAuf": 1410,
      "666": 1411,
      "ĠGr": 1412,
      "Ġrun": 1413,
      "Ġreag": 1414,
      "ĠKomm": 1415,
      "Ġhalb": 1416,
      "scp": 1417,
      "ĠhÃ¤tte": 1418,
      "Ġaquatisch": 1419,
      "gemein": 1420,
      "Ġreagiert": 1421,
      "Ġit": 1422,
      "Ġseit": 1423,
      "Ġhu": 1424,
      "ower": 1425,
      "unk": 1426,
      "Ġdies": 1427,
      "186": 1428,
      "ennt": 1429,
      "ischen": 1430,
      "Ġirgendwann": 1431,
      "Ġwurde": 1432,
      "540": 1433,
      "FA": 1434,
      "ga": 1435,
      "tf": 1436,
      "uft": 1437,
      "ĠX": 1438,
      "thunder": 1439,
      "ĠdafÃ¼r": 1440,
      "ige": 1441,
      "here": 1442,
      "ĠðŁĺ": 1443,
      "blem": 1444,
      "Ġextra": 1445,
      "Ġbesser": 1446,
      "126": 1447,
      "84": 1448,
      "ges": 1449,
      "ii": 1450,
      "ium": 1451,
      "lÃ¤": 1452,
      "line": 1453,
      "Ġloading": 1454,
      "cher": 1455,
      "Ġsehe": 1456,
      "Ġout": 1457,
      "Ġnd": 1458,
      "eln": 1459,
      "ĠDank": 1460,
      "Ġbest": 1461,
      "Ġfre": 1462,
      "ĠAbst": 1463,
      "ĠWann": 1464,
      "ĠWenn": 1465,
      "Ġschla": 1466,
      "Ġschreiben": 1467,
      "Ġjed": 1468,
      "ĠlÃ¤": 1469,
      "ĠOk": 1470,
      "ĠViel": 1471,
      "Ġgibts": 1472,
      "ungsgemein": 1473,
      "ĠSpÃ¤ter": 1474,
      "ammungsgemein": 1475,
      "Ġmusst": 1476,
      "ĠAbstammungsgemein": 1477,
      "ial": 1478,
      "ple": 1479,
      "pee": 1480,
      "Ġwe": 1481,
      "uto": 1482,
      "132": 1483,
      "ĠfÃ¼": 1484,
      "Ġzur": 1485,
      "Ġrunde": 1486,
      "182": 1487,
      "Ġneu": 1488,
      "1407": 1489,
      "post": 1490,
      "05": 1491,
      "49": 1492,
      "ER": 1493,
      "ac": 1494,
      "eak": 1495,
      "gesch": 1496,
      "jo": 1497,
      "of": 1498,
      "per": 1499,
      "chn": 1500,
      "Ġtr": 1501,
      "atik": 1502,
      "Ġheim": 1503,
      "ady": 1504,
      "ader": 1505,
      "aden": 1506,
      "Ġhabe": 1507,
      "iden": 1508,
      "igen": 1509,
      "tern": 1510,
      "hhh": 1511,
      "Ġverst": 1512,
      "640": 1513,
      "CH": 1514,
      "dd": 1515,
      "kitt": 1516,
      "lÃ¶": 1517,
      "ĠmÃ¶": 1518,
      "Ġohne": 1519,
      "Ġned": 1520,
      "Ġca": 1521,
      "aph": 1522,
      "this": 1523,
      "192": 1524,
      "Ġsogar": 1525,
      "ĠUff": 1526,
      "ĠStunden": 1527,
      "Ġsieht": 1528,
      "hlen": 1529,
      "ĠRegenbogen": 1530,
      "ĠwÃ¤r": 1531,
      "loved": 1532,
      "ĠAbstammungsgemeinschaft": 1533,
      "722": 1534,
      "ax": 1535,
      "bar": 1536,
      "dr": 1537,
      "est": 1538,
      "off": 1539,
      "sh": 1540,
      "tre": 1541,
      "was": 1542,
      "Ġass": 1543,
      "row": 1544,
      "ement": 1545,
      "alsch": 1546,
      "Ġgro": 1547,
      "iff": 1548,
      "1363": 1549,
      "ary": 1550,
      "Ġdazu": 1551,
      "260": 1552,
      "ĠKrank": 1553,
      "ĠTag": 1554,
      "786": 1555,
      "agt": 1556,
      "Ġbisl": 1557,
      "ucken": 1558,
      "solut": 1559,
      "\"\"": 1560,
      "61": 1561,
      "aber": 1562,
      "fahren": 1563,
      "glich": 1564,
      "live": 1565,
      "wise": 1566,
      "orry": 1567,
      "ans": 1568,
      "iece": 1569,
      "ĠMal": 1570,
      "ĠFische": 1571,
      "oog": 1572,
      "Ġmeiner": 1573,
      "able": 1574,
      "```": 1575,
      "iecewise": 1576,
      "75": 1577,
      "ding": 1578,
      "fahr": 1579,
      "gn": 1580,
      "Ġdus": 1581,
      "Ġok": 1582,
      "Ġev": 1583,
      "Ġnein": 1584,
      "Ġneh": 1585,
      "onest": 1586,
      "ĠAh": 1587,
      "Ġeiner": 1588,
      "ĠschÃ¶n": 1589,
      "ĠBei": 1590,
      "ĠNein": 1591,
      "ĠJungs": 1592,
      "ĠRunde": 1593,
      "ext": 1594,
      "IMG": 1595,
      "lan": 1596,
      "ose": 1597,
      "Ġro": 1598,
      "Ġid": 1599,
      "Ġessen": 1600,
      "Ġcom": 1601,
      "Ġged": 1602,
      "Ġinst": 1603,
      "ĠMein": 1604,
      "ction": 1605,
      "itz": 1606,
      "arbeit": 1607,
      "Ġfast": 1608,
      "175": 1609,
      "ÃŁer": 1610,
      "Ġgesagt": 1611,
      "mods": 1612,
      "Ġonline": 1613,
      "Ġletzt": 1614,
      "114": 1615,
      "59": 1616,
      "ahn": 1617,
      "cr": 1618,
      "hat": 1619,
      "klich": 1620,
      "pu": 1621,
      "yst": 1622,
      "ats": 1623,
      "athe": 1624,
      "Ġeing": 1625,
      "urn": 1626,
      "ĠSie": 1627,
      "cke": 1628,
      "ĠWeil": 1629,
      "Ġdau": 1630,
      "ramm": 1631,
      "iler": 1632,
      "ĠChe": 1633,
      "Ġgesehen": 1634,
      "Ġproblem": 1635,
      "Ġjoa": 1636,
      "ĠArbeit": 1637,
      "hause": 1638,
      "Ġsonst": 1639,
      "ĠKranken": 1640,
      "143": 1641,
      "69": 1642,
      "PU": 1643,
      "du": 1644,
      "dig": 1645,
      "honest": 1646,
      "izzzz": 1647,
      "sw": 1648,
      "Ġor": 1649,
      "Ġnormal": 1650,
      "our": 1651,
      "ount": 1652,
      "reat": 1653,
      "ache": 1654,
      "hol": 1655,
      "ĠfrÃ¼": 1656,
      "ĠIs": 1657,
      "ĠBo": 1658,
      "120": 1659,
      "ĠGleich": 1660,
      "200": 1661,
      "Ġready": 1662,
      "image": 1663,
      "9629": 1664,
      "Ġgute": 1665,
      "Ġrain": 1666,
      "warthunder": 1667,
      "Ġgeschrieben": 1668,
      "Ġ\"\"\"": 1669,
      "Ġlust": 1670,
      "Ġbereit": 1671,
      "175563": 1672,
      "ĠXD": 1673,
      "ĠVielen": 1674,
      "177": 1675,
      "750": 1676,
      "ec": 1677,
      "lie": 1678,
      "pro": 1679,
      "ty": 1680,
      "wir": 1681,
      "Ġ7": 1682,
      "isten": 1683,
      "issen": 1684,
      "elmo": 1685,
      "achte": 1686,
      "ĠSe": 1687,
      "ĠWoch": 1688,
      "Ġiss": 1689,
      "Ġzog": 1690,
      "ĠBess": 1691,
      "106": 1692,
      "hren": 1693,
      "ĠGute": 1694,
      "Ġleider": 1695,
      "aybe": 1696,
      "laub": 1697,
      "Ġhalbe": 1698,
      "Ġwenigstens": 1699,
      "togif": 1700,
      "Ġlass": 1701,
      "Ġselbst": 1702,
      "**": 1703,
      "IS": 1704,
      "akt": 1705,
      "belt": 1706,
      "capt": 1707,
      "hy": 1708,
      "je": 1709,
      "uh": 1710,
      "wend": 1711,
      "Ġ.": 1712,
      "Ġqu": 1713,
      "orn": 1714,
      "aten": 1715,
      "Ġmaybe": 1716,
      "Ġdoc": 1717,
      "Ġbtw": 1718,
      "Ġpass": 1719,
      "ĠMo": 1720,
      "Ġfor": 1721,
      "ĠIst": 1722,
      "ĠKief": 1723,
      "schie": 1724,
      "test": 1725,
      "936": 1726,
      "ime": 1727,
      "abel": 1728,
      "970": 1729,
      "modpackmodpackmodpackmodpackmodpackmodpackmodpackmodpack": 1730,
      "reaction": 1731,
      "caption": 1732,
      "ĠKiefer": 1733,
      "CT": 1734,
      "mer": 1735,
      "oid": 1736,
      "ren": 1737,
      "von": 1738,
      "ÏĢ": 1739,
      "Ġas": 1740,
      "Ġah": 1741,
      "ema": 1742,
      "Ġbock": 1743,
      "Ġgeil": 1744,
      "ĠDes": 1745,
      "ĠMuss": 1746,
      "own": 1747,
      "ther": 1748,
      "ckt": 1749,
      "Ġfra": 1750,
      "9089": 1751,
      "Ġdaheim": 1752,
      "26738": 1753,
      "Ġje": 1754,
      "Ġzuhause": 1755,
      "768": 1756,
      "Ġwirklich": 1757,
      "Ġgez": 1758,
      "egg": 1759,
      "985": 1760,
      "halb": 1761,
      "6409629": 1762,
      "908993": 1763,
      "267386409629": 1764,
      "267386409629908993": 1765,
      "108": 1766,
      "228": 1767,
      "ON": 1768,
      "gr": 1769,
      "gu": 1770,
      "kk": 1771,
      "pf": 1772,
      "son": 1773,
      "ub": 1774,
      "ud": 1775,
      "ĠÃ¤": 1776,
      "Ġdiscord": 1777,
      "Ġegal": 1778,
      "Ġnut": 1779,
      "ance": 1780,
      "ies": 1781,
      "Ġpc": 1782,
      "873": 1783,
      "ity": 1784,
      "ĠApp": 1785,
      "unkt": 1786,
      "Ã¤hr": 1787,
      "beloved": 1788,
      "Ġimm": 1789,
      "636": 1790,
      "ffen": 1791,
      "ult": 1792,
      "Ġbraucht": 1793,
      "!!": 1794,
      "116": 1795,
      "OR": 1796,
      "job": 1797,
      "lat": 1798,
      "ĊĠĠ": 1799,
      "int": 1800,
      "ish": 1801,
      "Ġdire": 1802,
      "alter": 1803,
      "Ġcos": 1804,
      "Ġpr": 1805,
      "llen": 1806,
      "ĠSinne": 1807,
      "cken": 1808,
      "Ġfalsch": 1809,
      "auf": 1810,
      "202": 1811,
      "ĠUhr": 1812,
      "isches": 1813,
      "Ġspielt": 1814,
      "aaaa": 1815,
      "Ġkomp": 1816,
      "Ã¤nger": 1817,
      "Ġgott": 1818,
      "Ġzwei": 1819,
      "Ġlebende": 1820,
      "oogle": 1821,
      "beltiere": 1822,
      "Ġdirekt": 1823,
      "240": 1824,
      "gst": 1825,
      "iem": 1826,
      "mÃ¤": 1827,
      "rÃ¤n": 1828,
      "ule": 1829,
      "weg": 1830,
      "ĠÃ": 1831,
      "erv": 1832,
      "ĠnÃ¤ch": 1833,
      "8750": 1834,
      "ition": 1835,
      "usamm": 1836,
      "Ġzusamm": 1837,
      "Ġeinmal": 1838,
      "raft": 1839,
      "igt": 1840,
      "08150": 1841,
      "7808150": 1842,
      "olk": 1843,
      "icken": 1844,
      "Ġunser": 1845,
      "ĠWird": 1846,
      "Ġmodpack": 1847,
      "Ġanderen": 1848,
      "ĠBruh": 1849,
      "Ġschlafen": 1850,
      "7227808150": 1851,
      "Ġduschen": 1852,
      "ystem": 1853,
      "ĠKrankenhaus": 1854,
      "Ġrainbow": 1855,
      "87501363": 1856,
      "722780815087501363": 1857,
      "39": 1858,
      "GCC": 1859,
      "ST": 1860,
      "hre": 1861,
      "hau": 1862,
      "mar": 1863,
      "nu": 1864,
      "nom": 1865,
      "vm": 1866,
      "wo": 1867,
      "wie": 1868,
      "Ġkroks": 1869,
      "Ġmo": 1870,
      "Ġwild": 1871,
      "Ġbr": 1872,
      "Ġze": 1873,
      "ĠGe": 1874,
      "067": 1875,
      "Ġgeb": 1876,
      "ÃŁen": 1877,
      "ittag": 1878,
      "Ġwohl": 1879,
      "Ġganze": 1880,
      "ĠmÃ¼ssen": 1881,
      "GAA": 1882,
      "troll": 1883,
      "247": 1884,
      "952": 1885,
      "bn": 1886,
      "jol": 1887,
      "Ġ:/": 1888,
      "org": 1889,
      "Ġhe": 1890,
      "ould": 1891,
      "Ġgue": 1892,
      "Ġgern": 1893,
      "Ġham": 1894,
      "tter": 1895,
      "aster": 1896,
      "utm": 1897,
      "uten": 1898,
      "Ġkap": 1899,
      "ĠSeb": 1900,
      "Ġsicher": 1901,
      "ĊĠĠĠĠĠ": 1902,
      "jolly": 1903,
      "Ġguess": 1904,
      "coo": 1905,
      "eff": 1906,
      "god": 1907,
      "lag": 1908,
      "oeff": 1909,
      "piler": 1910,
      "que": 1911,
      "tier": 1912,
      "Ġ13": 1913,
      "ĠMathe": 1914,
      "Ġihn": 1915,
      "188": 1916,
      "uchen": 1917,
      "olle": 1918,
      "ĠInter": 1919,
      "ĠUni": 1920,
      "ĠBett": 1921,
      "Ġzusammen": 1922,
      "85": 1923,
      "MA": 1924,
      "MIN": 1925,
      "ait": 1926,
      "do": 1927,
      "ey": 1928,
      "fte": 1929,
      "gel": 1930,
      "ok": 1931,
      "port": 1932,
      "wei": 1933,
      "ype": 1934,
      "inde": 1935,
      "Ġsow": 1936,
      "Ġsit": 1937,
      "Ġhol": 1938,
      "Ġging": 1939,
      "Ġgta": 1940,
      "asti": 1941,
      "135": 1942,
      "Ġscha": 1943,
      "Ġschw": 1944,
      "geben": 1945,
      "Ġjez": 1946,
      "indows": 1947,
      "Ġaufm": 1948,
      "Ġuni": 1949,
      "Ġmeinem": 1950,
      "anden": 1951,
      "984": 1952,
      "Ġvorher": 1953,
      "uckt": 1954,
      "973": 1955,
      "Ġgenug": 1956,
      "Ġbrauche": 1957,
      "3758": 1958,
      "Ġglaub": 1959,
      "Ã¤chlich": 1960,
      "LLM": 1961,
      "Ġjeden": 1962,
      "140746": 1963,
      "kitty": 1964,
      "atsÃ¤chlich": 1965,
      "ource": 1966,
      "118": 1967,
      "67": 1968,
      "978": 1969,
      "AL": 1970,
      "AT": 1971,
      "cle": 1972,
      "mlich": 1973,
      "nicht": 1974,
      "sste": 1975,
      "turn": 1976,
      "ux": 1977,
      "yy": 1978,
      "Ġ>": 1979,
      "ĠQ": 1980,
      "Ġ40": 1981,
      "Ġ50": 1982,
      "Ġ16": 1983,
      "inux": 1984,
      "Ġmy": 1985,
      "Ġwell": 1986,
      "Ġwsl": 1987,
      "icher": 1988,
      "Ġbas": 1989,
      "Ġcring": 1990,
      "annt": 1991,
      "Ġbeim": 1992,
      "ontag": 1993,
      "Ġallem": 1994,
      "Ġkern": 1995,
      "irl": 1996,
      "Ã¤te": 1997,
      "Ã¤mlich": 1998,
      "Ġdavon": 1999,
      "268": 2000,
      "Ġschle": 2001,
      "lug": 2002,
      "ĠBock": 2003,
      "127": 2004,
      "auert": 2005,
      "aufen": 2006,
      "Ã¼rlich": 2007,
      "andom": 2008,
      "236": 2009,
      "ically": 2010,
      "Ġ100": 2011,
      "Ġsollte": 2012,
      "ause": 2013,
      "Ġlassen": 2014,
      "Ġzoggn": 2015,
      "Ġnutzen": 2016,
      "Ġkaputt": 2017,
      "))": 2018,
      "128": 2019,
      "250": 2020,
      "NE": 2021,
      "\\*": 2022,
      "bot": 2023,
      "det": 2024,
      "ev": 2025,
      "fangen": 2026,
      "gl": 2027,
      "ler": 2028,
      "lle": 2029,
      "lay": 2030,
      "who": 2031,
      "ĊĠĠĠĠĠĠĠ": 2032,
      "Ġur": 2033,
      "ĠÃ¼": 2034,
      "Ġ19": 2035,
      "asch": 2036,
      "Ġsehen": 2037,
      "Ġmer": 2038,
      "Ġmag": 2039,
      "Ġdeutsch": 2040,
      "Ġover": 2041,
      "Ġno": 2042,
      "Ġwel": 2043,
      "those": 2044,
      "oment": 2045,
      "usst": 2046,
      "ĠSehr": 2047,
      "Ã¼nd": 2048,
      "ĠAha": 2049,
      "ĠWel": 2050,
      "514": 2051,
      "2658": 2052,
      "430": 2053,
      "ĠHmm": 2054,
      "ĠNacht": 2055,
      "ĠGanz": 2056,
      "Ġrum": 2057,
      "ĠTeil": 2058,
      "Ġerk": 2059,
      "Ġreturn": 2060,
      "Ġ14": 2061,
      "ockt": 2062,
      "Ġgrind": 2063,
      "weise": 2064,
      "true": 2065,
      "ienst": 2066,
      "ĠLeude": 2067,
      "Ġbekommen": 2068,
      "face": 2069,
      "uuh": 2070,
      "stellen": 2071,
      "Ġklar": 2072,
      "rotz": 2073,
      "Ġhusten": 2074,
      "ervus": 2075,
      "\",": 2076,
      "146": 2077,
      "410": 2078,
      "913": 2079,
      "DE": 2080,
      "ford": 2081,
      "fact": 2082,
      "mes": 2083,
      "na": 2084,
      "oading": 2085,
      "oice": 2086,
      "umm": 2087,
      "Ġ17": 2088,
      "inema": 2089,
      "oren": 2090,
      "ender": 2091,
      "Ġhoch": 2092,
      "roks": 2093,
      "ĠnÃ¶": 2094,
      "kst": 2095,
      "review": 2096,
      "ctor": 2097,
      "716": 2098,
      "Ġkle": 2099,
      "ĠAus": 2100,
      "ĠAhnung": 2101,
      "Ġisses": 2102,
      "Ġeinz": 2103,
      "raf": 2104,
      "Ġnichts": 2105,
      "ĠHer": 2106,
      "Ġregenbogen": 2107,
      "ennen": 2108,
      "Ġbisschen": 2109,
      "ĠspÃ¤t": 2110,
      "acke": 2111,
      "Ġabsolut": 2112,
      "Ġwenns": 2113,
      "Ġwerd": 2114,
      "wegen": 2115,
      "Ġeigen": 2116,
      "ĠDiese": 2117,
      "Ġfehlt": 2118,
      "Ġlucy": 2119,
      "ĠhÃ¶rt": 2120,
      "Ġsondern": 2121,
      "Ġ<:": 2122,
      "Ġissue": 2123,
      "653": 2124,
      "919": 2125,
      "918": 2126,
      "CTA": 2127,
      "bin": 2128,
      "bel": 2129,
      "cl": 2130,
      "cre": 2131,
      "echt": 2132,
      "gramm": 2133,
      "hst": 2134,
      "nn": 2135,
      "now": 2136,
      "pi": 2137,
      "press": 2138,
      "piecewise": 2139,
      "Ðĺ": 2140,
      "ĴĢ": 2141,
      "ers": 2142,
      "chte": 2143,
      "Ġapp": 2144,
      "Ġho": 2145,
      "Ġdachte": 2146,
      "Ġeh": 2147,
      "Ġel": 2148,
      "Ġnice": 2149,
      "Ġby": 2150,
      "let": 2151,
      "elag": 2152,
      "approximation": 2153,
      "876": 2154,
      "138": 2155,
      "Ġupdate": 2156,
      "ĠSa": 2157,
      "ĠSpiel": 2158,
      "ĠBrauch": 2159,
      "Ġihm": 2160,
      "ĠHand": 2161,
      "209": 2162,
      "Ġaufge": 2163,
      "key": 2164,
      "hler": 2165,
      "Ġunsere": 2166,
      "spalter": 2167,
      "ĠÃ¼berhau": 2168,
      "board": 2169,
      "9966": 2170,
      "locked": 2171,
      "balls": 2172,
      "gument": 2173,
      "unktion": 2174,
      "ĠÃ¼berhaupt": 2175,
      "319": 2176,
      "443": 2177,
      "736": 2178,
      ":)": 2179,
      "GG": 2180,
      "RV": 2181,
      "fire": 2182,
      "iant": 2183,
      "met": 2184,
      "rv": 2185,
      "skill": 2186,
      "Ġend": 2187,
      "ons": 2188,
      "inter": 2189,
      "Ġto": 2190,
      "Ġtut": 2191,
      "Ġtrotz": 2192,
      "ater": 2193,
      "Ġmath": 2194,
      "Ġess": 2195,
      "Ġoff": 2196,
      "Ġbzw": 2197,
      "ike": 2198,
      "lett": 2199,
      "legt": 2200,
      "reit": 2201,
      "ĠDan": 2202,
      "Ġbeiden": 2203,
      "ĠMach": 2204,
      "Ġstar": 2205,
      "715": 2206,
      "7123": 2207,
      "133": 2208,
      "Ġuhr": 2209,
      "usur": 2210,
      "ete": 2211,
      "ĠSk": 2212,
      "ĠServus": 2213,
      "Ã¼mm": 2214,
      "esen": 2215,
      "ĠAch": 2216,
      "660": 2217,
      "903": 2218,
      "ign": 2219,
      "504": 2220,
      "507": 2221,
      "129": 2222,
      "ood": 2223,
      "ĠUm": 2224,
      "980": 2225,
      "147": 2226,
      "zzz": 2227,
      "lesen": 2228,
      "lausur": 2229,
      "wester": 2230,
      "Ġgener": 2231,
      "Ġprof": 2232,
      "ugs": 2233,
      "Ġganzen": 2234,
      "issue": 2235,
      "ĠErst": 2236,
      "====": 2237,
      "heimer": 2238,
      "Ġlernen": 2239,
      "wiki": 2240,
      "ĠlÃ¤uft": 2241,
      "ĠmÃ¶glich": 2242,
      "oeffs": 2243,
      "Ġtrotzdem": 2244,
      "096": 2245,
      "166": 2246,
      "119": 2247,
      "733": 2248,
      "910": 2249,
      "SS": 2250,
      "bird": 2251,
      "cinema": 2252,
      "iles": 2253,
      "ji": 2254,
      "lin": 2255,
      "nen": 2256,
      "sha": 2257,
      "vel": 2258,
      "void": 2259,
      "ister": 2260,
      "Ġhop": 2261,
      "emo": 2262,
      "Ġcoo": 2263,
      "Ġpar": 2264,
      "stÃ¤nd": 2265,
      "utzt": 2266,
      "ify": 2267,
      "713": 2268,
      "133758": 2269,
      "4020": 2270,
      "Ġfr": 2271,
      "ĠAuto": 2272,
      "Ġschau": 2273,
      "igung": 2274,
      "944": 2275,
      "ĠNot": 2276,
      "ĠTer": 2277,
      "ĠEnd": 2278,
      "otify": 2279,
      "Ġxd": 2280,
      "opf": 2281,
      "open": 2282,
      "0000": 2283,
      "5743": 2284,
      "Ġranked": 2285,
      "Ġvorbei": 2286,
      "laf": 2287,
      "Ġdeiner": 2288,
      "track": 2289,
      "Ġhalben": 2290,
      "utter": 2291,
      "ĠVorles": 2292,
      "134930": 2293,
      "1555743": 2294,
      "Ġneuen": 2295,
      "Ġletzte": 2296,
      "Ġlustig": 2297,
      "Ġpassiert": 2298,
      "1337581555743": 2299,
      "1349301337581555743": 2300,
      "006": 2301,
      "9636": 2302,
      "BA": 2303,
      "EN": 2304,
      "Ja": 2305,
      "US": 2306,
      "agen": 2307,
      "bunny": 2308,
      "dan": 2309,
      "fer": 2310,
      "gang": 2311,
      "keit": 2312,
      "oh": 2313,
      "rim": 2314,
      "sho": 2315,
      "set": 2316,
      "Ġig": 2317,
      "Ġsumm": 2318,
      "ĠtatsÃ¤chlich": 2319,
      "ĠheiÃŁ": 2320,
      "know": 2321,
      "ream": 2322,
      "ĠMen": 2323,
      "465": 2324,
      "ĠnatÃ¼rlich": 2325,
      "ĠSh": 2326,
      "Ġfind": 2327,
      "ĠIde": 2328,
      "Ã¤ft": 2329,
      "ĠBr": 2330,
      "635": 2331,
      "sche": 2332,
      "schiz": 2333,
      "524": 2334,
      "ĠTh": 2335,
      "ĠFra": 2336,
      "1763": 2337,
      "icke": 2338,
      "pielt": 2339,
      "Ġwirds": 2340,
      "Ġdrin": 2341,
      "Ġdran": 2342,
      "aking": 2343,
      "scur": 2344,
      "ĠWohnung": 2345,
      "ccount": 2346,
      "Ġfucking": 2347,
      "Ġtrain": 2348,
      "10966": 2349,
      "Ġschneller": 2350,
      "Ġdiesem": 2351,
      "Ġidk": 2352,
      "ĠWoche": 2353,
      "eggs": 2354,
      "ĠSebi": 2355,
      "ĠQu": 2356,
      "Ġcringe": 2357,
      "Ġkernspalter": 2358,
      "'m": 2359,
      "(\"": 2360,
      "):": 2361,
      "210": 2362,
      "276": 2363,
      "548": 2364,
      "651": 2365,
      "Bin": 2366,
      "Das": 2367,
      "In": 2368,
      "LE": 2369,
      "Und": 2370,
      "UTE": 2371,
      "cod": 2372,
      "fl": 2373,
      "mon": 2374,
      "pm": 2375,
      "sel": 2376,
      "shr": 2377,
      "wh": 2378,
      "ware": 2379,
      "ymp": 2380,
      "ĠY": 2381,
      "Ġ\\": 2382,
      "Ġ```": 2383,
      "ĳį": 2384,
      "chmal": 2385,
      "inus": 2386,
      "Ġsinn": 2387,
      "rom": 2388,
      "Ġwt": 2389,
      "Ġwitz": 2390,
      "kroken": 2391,
      "ĠblÃ¶": 2392,
      "Ġcat": 2393,
      "ĠMorgen": 2394,
      "ĠMontag": 2395,
      "stag": 2396,
      "Ġstr": 2397,
      "Ġsteht": 2398,
      "Ġknecht": 2399,
      "iter": 2400,
      "utom": 2401,
      "argument": 2402,
      "Ġkon": 2403,
      "Ġkrie": 2404,
      "380": 2405,
      "458": 2406,
      "raw": 2407,
      "rain": 2408,
      "ĠBis": 2409,
      "Ġlat": 2410,
      "Ã¶r": 2411,
      "ĠHast": 2412,
      "ĠNoch": 2413,
      "ĠNÃ¶": 2414,
      "ĠGTA": 2415,
      "Ġrandom": 2416,
      "207": 2417,
      "liche": 2418,
      "1843": 2419,
      "Ġneben": 2420,
      "umen": 2421,
      "ible": 2422,
      "ilder": 2423,
      "ical": 2424,
      "acken": 2425,
      "ĠOke": 2426,
      "Ġgespielt": 2427,
      "ĠðŁ¤": 2428,
      "ĠðŁĴĢ": 2429,
      "INTE": 2430,
      "Ġverwend": 2431,
      "ĠSchicht": 2432,
      "ĠSchwester": 2433,
      "ickt": 2434,
      "536": 2435,
      "ufen": 2436,
      "artet": 2437,
      "eschrÃ¤n": 2438,
      "Ġmusste": 2439,
      "ĠWarum": 2440,
      "breen": 2441,
      "Ġwollen": 2442,
      "Ġwollte": 2443,
      "ĠBruder": 2444,
      "Ġkek": 2445,
      "Ġevtl": 2446,
      "Ġnehmen": 2447,
      "wegs": 2448,
      "ĠInternet": 2449,
      "MINUTE": 2450,
      "clear": 2451,
      "Ġbasically": 2452,
      "elagerung": 2453,
      "RVAL": 2454,
      "shrim": 2455,
      "krokenheimer": 2456,
      "INTERVAL": 2457,
      "MINUTES": 2458,
      "012": 2459,
      "810": 2460,
      "bit": 2461,
      "care": 2462,
      "far": 2463,
      "fort": 2464,
      "him": 2465,
      "kiss": 2466,
      "rus": 2467,
      "rar": 2468,
      "sd": 2469,
      "ser": 2470,
      "satz": 2471,
      "val": 2472,
      "voll": 2473,
      "wor": 2474,
      "wty": 2475,
      "xt": 2476,
      "zer": 2477,
      "zie": 2478,
      "zuf": 2479,
      "Ġ&": 2480,
      "Ġsachen": 2481,
      "Ġtun": 2482,
      "ated": 2483,
      "Ġauto": 2484,
      "iso": 2485,
      "Ġhil": 2486,
      "Ġnah": 2487,
      "emon": 2488,
      "Ġben": 2489,
      "Ġgucken": 2490,
      "log": 2491,
      "elle": 2492,
      "ĠDen": 2493,
      "ĠMin": 2494,
      "Ġsave": 2495,
      "hold": 2496,
      "itag": 2497,
      "718": 2498,
      "1346": 2499,
      "Ã¼t": 2500,
      "esund": 2501,
      "ĠWe": 2502,
      "ichtet": 2503,
      "Ġdieses": 2504,
      "ĠBeg": 2505,
      "gear": 2506,
      "Ġvoll": 2507,
      "433": 2508,
      "1045": 2509,
      "9477": 2510,
      "9423": 2511,
      "ĠKn": 2512,
      "Ã¶se": 2513,
      "ĠHaus": 2514,
      "ĠFe": 2515,
      "ĠFall": 2516,
      "Ġrezen": 2517,
      "Ġrelat": 2518,
      "ĠLinux": 2519,
      "ĠPC": 2520,
      "ĠPeak": 2521,
      "ooth": 2522,
      "160": 2523,
      "ump": 2524,
      "300": 2525,
      "ucht": 2526,
      "Ġgehts": 2527,
      "ĠCh": 2528,
      "ĠCom": 2529,
      "ĠCPU": 2530,
      "142": 2531,
      "ktiv": 2532,
      "561": 2533,
      "Ġverk": 2534,
      "iertel": 2535,
      "spotify": 2536,
      "ahre": 2537,
      "Ġabends": 2538,
      "Ġwillst": 2539,
      "Ġhinter": 2540,
      "Ġanderes": 2541,
      "Ġbekommt": 2542,
      "afft": 2543,
      "137178": 2544,
      "Ġhuste": 2545,
      "ĠgroÃŁ": 2546,
      "Ġdauert": 2547,
      "ĠBesserung": 2548,
      "Ġgezockt": 2549,
      "Ġgerne": 2550,
      "facts": 2551,
      "71347": 2552,
      "rusader": 2553,
      "157": 2554,
      "153": 2555,
      "266": 2556,
      "306": 2557,
      "5768": 2558,
      "PE": 2559,
      "Wie": 2560,
      "aw": 2561,
      "bf": 2562,
      "dy": 2563,
      "fra": 2564,
      "fter": 2565,
      "geh": 2566,
      "king": 2567,
      "ml": 2568,
      "oom": 2569,
      "par": 2570,
      "source": 2571,
      "top": 2572,
      "uhe": 2573,
      "ven": 2574,
      "volk": 2575,
      "ye": 2576,
      "yl": 2577,
      "Ġsorry": 2578,
      "Ġtonk": 2579,
      "ichen": 2580,
      "Ġbring": 2581,
      "Ġbasti": 2582,
      "Ġcpu": 2583,
      "lekt": 2584,
      "Ġph": 2585,
      "still": 2586,
      "Ġub": 2587,
      "Ġup": 2588,
      "ĠSÃ¤": 2589,
      "Ã¤re": 2590,
      "razy": 2591,
      "rabb": 2592,
      "439": 2593,
      "1033": 2594,
      "ĠlÃ¤nger": 2595,
      "eibs": 2596,
      "ĠHal": 2597,
      "ĠGen": 2598,
      "ĠEx": 2599,
      "ĠPl": 2600,
      "ĠUpdate": 2601,
      "ĠOb": 2602,
      "ĠðŁĻ": 2603,
      "ipt": 2604,
      "ipedia": 2605,
      "Ġnachm": 2606,
      "Ġdeinem": 2607,
      "ultra": 2608,
      "Ġarsch": 2609,
      "scary": 2610,
      "uuy": 2611,
      "ltg": 2612,
      "ĠbeschÃ¤ft": 2613,
      "Ġschauts": 2614,
      "ĠzurÃ¼ck": 2615,
      "fahrt": 2616,
      "bnuuy": 2617,
      "rabbit": 2618,
      "ultrakill": 2619,
      "156": 2620,
      "245": 2621,
      "35": 2622,
      "854": 2623,
      "977": 2624,
      "951": 2625,
      "912": 2626,
      "920": 2627,
      "995": 2628,
      "ACA": 2629,
      "CCA": 2630,
      "CTT": 2631,
      "DB": 2632,
      "GL": 2633,
      "Pl": 2634,
      "Was": 2635,
      "dann": 2636,
      "ient": 2637,
      "nis": 2638,
      "sm": 2639,
      "spiel": 2640,
      "tik": 2641,
      "ĊĠĠĠĠ": 2642,
      "Ġ#": 2643,
      "ĠÏĢ": 2644,
      "inks": 2645,
      "asse": 2646,
      "atr": 2647,
      "atze": 2648,
      "Ġach": 2649,
      "Ġahnung": 2650,
      "Ġmon": 2651,
      "Ġmitt": 2652,
      "Ġecht": 2653,
      "Ġnimmer": 2654,
      "Ġbil": 2655,
      "Ġbere": 2656,
      "Ġblock": 2657,
      "Ġcoeffs": 2658,
      "led": 2659,
      "anno": 2660,
      "Ġpart": 2661,
      "ĠMeine": 2662,
      "star": 2663,
      "store": 2664,
      "Ġstell": 2665,
      "Ġandere": 2666,
      "Ġus": 2667,
      "Ġkenn": 2668,
      "cker": 2669,
      "2850": 2670,
      "ĠauÃŁer": 2671,
      "2628": 2672,
      "Ġschl": 2673,
      "ĠBl": 2674,
      "ĠBzw": 2675,
      "ĠBelagerung": 2676,
      "Ġlike": 2677,
      "9488": 2678,
      "ĠKroks": 2679,
      "Ã¶rt": 2680,
      "schi": 2681,
      "ĠHo": 2682,
      "ĠHat": 2683,
      "ĠNice": 2684,
      "ĠGesund": 2685,
      "def": 2686,
      "Ġdenken": 2687,
      "ĠTe": 2688,
      "ĠTonk": 2689,
      "ĠEgal": 2690,
      "Ġrecht": 2691,
      "ĠPrÃ¼": 2692,
      "Ġmanchmal": 2693,
      "ĠVllt": 2694,
      "itten": 2695,
      "opp": 2696,
      "ĠðŁ«": 2697,
      "innen": 2698,
      "2192": 2699,
      "ĠInform": 2700,
      "Ġseiner": 2701,
      "274": 2702,
      "TAT": 2703,
      "Ã¤ngt": 2704,
      "ĠEinfach": 2705,
      "brick": 2706,
      "ezgif": 2707,
      "Ġboizzzz": 2708,
      "Ġangefangen": 2709,
      "Ġshit": 2710,
      "Ġweiteren": 2711,
      "Ġlol": 2712,
      "ĠFreund": 2713,
      "ĠGrund": 2714,
      "Ġinstall": 2715,
      "ĠApproximation": 2716,
      "Ã¤testens": 2717,
      "ĠHmmm": 2718,
      "ĠerklÃ¤": 2719,
      "ĠIdee": 2720,
      "Ġwitzig": 2721,
      "shrimple": 2722,
      ")\\*": 2723,
      "163": 2724,
      "115": 2725,
      "477": 2726,
      "Der": 2727,
      "Fisch": 2728,
      "FIS": 2729,
      "Kom": 2730,
      "aign": 2731,
      "cur": 2732,
      "cine": 2733,
      "cry": 2734,
      "camp": 2735,
      "des": 2736,
      "iag": 2737,
      "kip": 2738,
      "lÃ¼ck": 2739,
      "ogen": 2740,
      "pun": 2741,
      "piss": 2742,
      "ric": 2743,
      "riff": 2744,
      "sion": 2745,
      "smo": 2746,
      "site": 2747,
      "time": 2748,
      "tisches": 2749,
      "yth": 2750,
      "zÃ¤": 2751,
      "inen": 2752,
      "intl": 2753,
      "Ġset": 2754,
      "Ġtakt": 2755,
      "ates": 2756,
      "Ġadd": 2757,
      "Ġmoment": 2758,
      "Ġdef": 2759,
      "Ġeif": 2760,
      "Ġeff": 2761,
      "Ġbild": 2762,
      "ĠbÃ¶se": 2763,
      "Ġcl": 2764,
      "ions": 2765,
      "lose": 2766,
      "lossen": 2767,
      "ĠDeutsch": 2768,
      "uren": 2769,
      "ural": 2770,
      "Ġpisc": 2771,
      "isces": 2772,
      "Ġbett": 2773,
      "ĠMit": 2774,
      "Ġknil": 2775,
      "yletisches": 2776,
      "utable": 2777,
      "iflin": 2778,
      "Ġkont": 2779,
      "einisch": 2780,
      "ĠSte": 2781,
      "Ġfix": 2782,
      "ĠAu": 2783,
      "unter": 2784,
      "Ã¤d": 2785,
      "Ã¤r": 2786,
      "Ã¤llen": 2787,
      "518": 2788,
      "Ġschein": 2789,
      "Ġschreib": 2790,
      "gef": 2791,
      "ĠKe": 2792,
      "ĠKiem": 2793,
      "Ġdumm": 2794,
      "ĠNiklas": 2795,
      "ĠTax": 2796,
      "lichen": 2797,
      "932": 2798,
      "Ġantw": 2799,
      "78145": 2800,
      "Ġrest": 2801,
      "ĠLand": 2802,
      "ĠPisces": 2803,
      "168": 2804,
      "Ġunvoll": 2805,
      "illy": 2806,
      "Ġledig": 2807,
      "988": 2808,
      "ĠCrusader": 2809,
      "Ġwarte": 2810,
      "2206": 2811,
      "ĠStr": 2812,
      "old": 2813,
      "ĠZe": 2814,
      "ope": 2815,
      "Ġvertra": 2816,
      "Ġumf": 2817,
      "975": 2818,
      "weder": 2819,
      "quen": 2820,
      "ĠkÃ¶nnt": 2821,
      "triflin": 2822,
      "Ġviele": 2823,
      "geren": 2824,
      "uper": 2825,
      "ĠWirbeltiere": 2826,
      "minos": 2827,
      "Ġarbeiten": 2828,
      "Ġbekomme": 2829,
      "ĠhÃ¶r": 2830,
      "Ġengeren": 2831,
      "Ġgarnicht": 2832,
      "âĢľ)": 2833,
      "Ġgeld": 2834,
      "Ġruntime": 2835,
      "18678145": 2836,
      "aphyletisches": 2837,
      "treten": 2838,
      "ĠeingeschrÃ¤n": 2839,
      "Ġdauern": 2840,
      "12018678145": 2841,
      "Ġjeder": 2842,
      "Ġkomplett": 2843,
      "nuclear": 2844,
      "shawty": 2845,
      "emoji": 2846,
      "Ġparaphyletisches": 2847,
      "Ġlateinisch": 2848,
      "logischen": 2849,
      "ĠBegriff": 2850,
      "Ġrelativ": 2851,
      "71347970": 2852,
      "Plural": 2853,
      "FISH": 2854,
      "campaign": 2855,
      "smoke": 2856,
      "ython": 2857,
      "Ġeffiz": 2858,
      "Ġpiscis": 2859,
      "Ġknilch": 2860,
      "ĠKiemen": 2861,
      "ĠTaxon": 2862,
      "Ġlediglich": 2863,
      "ĠeingeschrÃ¤nkt": 2864,
      "1201867814571347970": 2865,
      "058": 2866,
      "110": 2867,
      "487": 2868,
      "650": 2869,
      "729": 2870,
      "Aber": 2871,
      "CL": 2872,
      "Die": 2873,
      "OLL": 2874,
      "craft": 2875,
      "gun": 2876,
      "gip": 2877,
      "gith": 2878,
      "ife": 2879,
      "kan": 2880,
      "mg": 2881,
      "mine": 2882,
      "uen": 2883,
      "wit": 2884,
      "wand": 2885,
      "Ġ)": 2886,
      "Ġat": 2887,
      "Ġast": 2888,
      "Ġ18": 2889,
      "inder": 2890,
      "orre": 2891,
      "Ġsort": 2892,
      "Ġskill": 2893,
      "Ġsfa": 2894,
      "ature": 2895,
      "Ġad": 2896,
      "Ġdown": 2897,
      "lordkroks": 2898,
      "Ġbro": 2899,
      "Ġble": 2900,
      "ound": 2901,
      "iele": 2902,
      "Ġget": 2903,
      "elden": 2904,
      "kohol": 2905,
      "Ġpeak": 2906,
      "ĠMod": 2907,
      "threat": 2908,
      "Ġstimmt": 2909,
      "Ġsag": 2910,
      "Ġchill": 2911,
      "Ġknow": 2912,
      "1338": 2913,
      "280": 2914,
      "Ġisn": 2915,
      "5128": 2916,
      "2634": 2917,
      "ĠscheiÃŁ": 2918,
      "Ġschwer": 2919,
      "iges": 2920,
      "ĠBer": 2921,
      "Ġjetz": 2922,
      "ĠKopf": 2923,
      "Ã¶sen": 2924,
      "ĠHa": 2925,
      "ĠNix": 2926,
      "ĠJahr": 2927,
      "Ġmachst": 2928,
      "ĠEssen": 2929,
      "ĠElekt": 2930,
      "ĠFahr": 2931,
      "7862": 2932,
      "Ġgep": 2933,
      "ĠLoading": 2934,
      "oop": 2935,
      "see": 2936,
      "haha": 2937,
      "Ġabge": 2938,
      "474": 2939,
      "ĠSchreib": 2940,
      "hhhh": 2941,
      "ĠAlter": 2942,
      "Ġbrauchst": 2943,
      "Ġversch": 2944,
      "ĠmÃ¼de": 2945,
      "ĠmÃ¼sste": 2946,
      "Ġdanke": 2947,
      "Ġlieber": 2948,
      "Ġende": 2949,
      "breaking": 2950,
      "wikipedia": 2951,
      "cript": 2952,
      "weile": 2953,
      "indest": 2954,
      "Ġsummon": 2955,
      "eibsvolk": 2956,
      "giphy": 2957,
      "github": 2958,
      "26347862": 2959,
      "238": 2960,
      "396": 2961,
      "426": 2962,
      "5866": 2963,
      "5715": 2964,
      ":\",": 2965,
      "??": 2966,
      "AN": 2967,
      "SD": 2968,
      "ba": 2969,
      "cute": 2970,
      "fol": 2971,
      "google": 2972,
      "girl": 2973,
      "iemand": 2974,
      "ms": 2975,
      "neh": 2976,
      "ott": 2977,
      "rass": 2978,
      "sst": 2979,
      "weit": 2980,
      "wehr": 2981,
      "ĠÃ¶": 2982,
      "erer": 2983,
      "ines": 2984,
      "ench": 2985,
      "Ġsem": 2986,
      "Ġty": 2987,
      "Ġtan": 2988,
      "Ġtext": 2989,
      "Ġauss": 2990,
      "Ġdienst": 2991,
      "Ġoke": 2992,
      "Ġwat": 2993,
      "ander": 2994,
      "emp": 2995,
      "emes": 2996,
      "lass": 2997,
      "appen": 2998,
      "Ġpip": 2999,
      "jarv": 3000,
      "ttigung": 3001,
      "that": 3002,
      "4600": 3003,
      "878": 3004,
      "usion": 3005,
      "uscher": 3006,
      "ĠSon": 3007,
      "ĠSorry": 3008,
      "Ġfab": 3009,
      "ĠImmer": 3010,
      "ĠWat": 3011,
      "ĠWill": 3012,
      "ĠWell": 3013,
      "ĠWeiÃŁ": 3014,
      "ĠWeb": 3015,
      "ĠWahrscheinlich": 3016,
      "ĠWindows": 3017,
      "Ġzwar": 3018,
      "ĠBist": 3019,
      "ĠBahn": 3020,
      "1984": 3021,
      "Ġvar": 3022,
      "Ġlinks": 3023,
      "Ġluscher": 3024,
      "ĠKeine": 3025,
      "schreit": 3026,
      "ĠHe": 3027,
      "ĠNa": 3028,
      "ĠType": 3029,
      "788": 3030,
      "7848": 3031,
      "Ġhabs": 3032,
      "ĠLass": 3033,
      "ĠPer": 3034,
      "ooo": 3035,
      "167": 3036,
      "55653": 3037,
      "ðŁĺ": 3038,
      "ames": 3039,
      "586": 3040,
      "ÃŁe": 3041,
      "ÃŁig": 3042,
      "ĠOh": 3043,
      "Ġwaren": 3044,
      "14918": 3045,
      "ĠðŁ¥": 3046,
      "ĠðŁĳį": 3047,
      "4747": 3048,
      "Ġerste": 3049,
      "004": 3050,
      "5742": 3051,
      "Ã¼berschreit": 3052,
      "steamp": 3053,
      "Ġproje": 3054,
      "ĠSpr": 3055,
      "Ġ:>": 3056,
      "nerd": 3057,
      "Ġliebt": 3058,
      "ĠAnford": 3059,
      "ĠZeitÃ¼berschreit": 3060,
      "ooooo": 3061,
      "Ġtesten": 3062,
      "OOOO": 3063,
      "epy": 3064,
      "print": 3065,
      "EEEE": 3066,
      "ĠAbsolut": 3067,
      "4504747": 3068,
      "1371854": 3069,
      "Ġrunter": 3070,
      "owered": 3071,
      "5404600": 3072,
      "13255653": 3073,
      "joschi": 3074,
      "arbeitet": 3075,
      "ĠBoizzzz": 3076,
      "ĠBesser": 3077,
      "Ġbyte": 3078,
      "Ġstarten": 3079,
      "ĠErstmal": 3080,
      "576814918": 3081,
      "ĠSÃ¤ttigung": 3082,
      "Ġnachmittag": 3083,
      "57154504747": 3084,
      "nehmen": 3085,
      "jarvis": 3086,
      "steampowered": 3087,
      "ĠAnforderung": 3088,
      "ĠZeitÃ¼berschreitung": 3089,
      "1371854113": 3090,
      "540460036": 3091,
      "1325565357154504747": 3092,
      "576814918540460036": 3093,
      "117": 3094,
      "256": 3095,
      "323": 3096,
      "3970": 3097,
      "60": 3098,
      "748": 3099,
      "987": 3100,
      "945": 3101,
      "925": 3102,
      "Al": 3103,
      "EK": 3104,
      "Flet": 3105,
      "RD": 3106,
      "Rainbow": 3107,
      "Sir": 3108,
      "by": 3109,
      "bet": 3110,
      "bess": 3111,
      "ca": 3112,
      "cord": 3113,
      "df": 3114,
      "dis": 3115,
      "down": 3116,
      "fung": 3117,
      "fahre": 3118,
      "gan": 3119,
      "gsten": 3120,
      "ka": 3121,
      "kl": 3122,
      "land": 3123,
      "nÃ¤mlich": 3124,
      "power": 3125,
      "rÃ¤": 3126,
      "server": 3127,
      "sle": 3128,
      "vor": 3129,
      "woo": 3130,
      "water": 3131,
      "xs": 3132,
      "Ã©": 3133,
      "Ġzon": 3134,
      "orten": 3135,
      "orse": 3136,
      "Ġsm": 3137,
      "atische": 3138,
      "Ġmass": 3139,
      "lynom": 3140,
      "round": 3141,
      "ana": 3142,
      "Ġbu": 3143,
      "Ġbio": 3144,
      "Ġcode": 3145,
      "load": 3146,
      "Ġpf": 3147,
      "Ġpsi": 3148,
      "ĠMa": 3149,
      "ĠMann": 3150,
      "Ġstartet": 3151,
      "fehler": 3152,
      "Ġchat": 3153,
      "77283": 3154,
      "ift": 3155,
      "irate": 3156,
      "ĠSystem": 3157,
      "ehend": 3158,
      "Ġfun": 3159,
      "457": 3160,
      "908": 3161,
      "ochen": 3162,
      "2644": 3163,
      "raum": 3164,
      "1243": 3165,
      "Ġjust": 3166,
      "ĠjÃ¼n": 3167,
      "Ġvoice": 3168,
      "10171": 3169,
      "Ġliter": 3170,
      "aum": 3171,
      "6372": 3172,
      "ĠNP": 3173,
      "060": 3174,
      "762": 3175,
      "765": 3176,
      "7603": 3177,
      "undmÃ¤": 3178,
      "2016": 3179,
      "ĠTiere": 3180,
      "ĠFÃ¤llen": 3181,
      "783970": 3182,
      "ĠRundmÃ¤": 3183,
      "ĠLÃ¼mm": 3184,
      "ĠPing": 3185,
      "1756": 3186,
      "ĠUr": 3187,
      "Ġung": 3188,
      "Ġunten": 3189,
      "ernoch": 3190,
      "ibt": 3191,
      "ilfe": 3192,
      "Ġlebend": 3193,
      "Ġleute": 3194,
      "960": 3195,
      "9644": 3196,
      "ills": 3197,
      "ĠOpen": 3198,
      "iao": 3199,
      "229": 3200,
      "allem": 3201,
      "Ġverp": 3202,
      "Ġvertreten": 3203,
      "Ġersten": 3204,
      "000": 3205,
      "074": 3206,
      "5729": 3207,
      "3364": 3208,
      "2971": 3209,
      "Ġihrer": 3210,
      "lair": 3211,
      "Ġdeinen": 3212,
      "ĠInf": 3213,
      "ulern": 3214,
      "tritt": 3215,
      "30555729": 3216,
      "ĠNachfahren": 3217,
      "ĠNachfahre": 3218,
      "0354": 3219,
      "Ġgeschlossen": 3220,
      "ldr": 3221,
      "Ġkom": 3222,
      "731": 3223,
      "lowin": 3224,
      "bleme": 3225,
      "2157": 3226,
      "ĠDaher": 3227,
      "Ġirgendwas": 3228,
      "ĠArten": 3229,
      "Ġnerv": 3230,
      "rrr": 3231,
      "rrrr": 3232,
      "yoursel": 3233,
      "ideo": 3234,
      "Ġgewesen": 3235,
      "ĠVorfahren": 3236,
      "134975": 3237,
      "reactor": 3238,
      "etzner": 3239,
      "onghold": 3240,
      "Ġbestehend": 3241,
      "175507": 3242,
      "wirbeltiere": 3243,
      "ĠKieferlose": 3244,
      "Ġschaffen": 3245,
      "Ġdeutsche": 3246,
      "26582644": 3247,
      "stÃ¤ndige": 3248,
      "ĠEnde": 3249,
      "ĠFrage": 3250,
      "Ġverwendet": 3251,
      "ziehen": 3252,
      "Ġhilft": 3253,
      "134677283": 3254,
      "104510171": 3255,
      "9423783970": 3256,
      "ĠFeuer": 3257,
      "Ġrezenten": 3258,
      "9203364": 3259,
      "Ġbilden": 3260,
      "ĠLandwirbeltiere": 3261,
      "ĠunvollstÃ¤ndige": 3262,
      "Ġumfasst": 3263,
      "EKW": 3264,
      "Fletcher": 3265,
      "SirFletcher": 3266,
      "Ġzonk": 3267,
      "Ġbiologischen": 3268,
      "ĠSystematik": 3269,
      "ĠjÃ¼ngsten": 3270,
      "Ġliterally": 3271,
      "ĠRundmÃ¤ulern": 3272,
      "ĠLÃ¼mmel": 3273,
      "Ġlebenden": 3274,
      "Ġgeschlossene": 3275,
      "yourself": 3276,
      "134975134677283": 3277,
      "1045101719203364": 3278,
      "942378397030555729": 3279,
      "1349751346772836372": 3280,
      "1045101719203364944": 3281,
      "++": 3282,
      "178": 3283,
      "395": 3284,
      "746": 3285,
      "703": 3286,
      ":(": 3287,
      ":~": 3288,
      "AMA": 3289,
      "EO": 3290,
      "EX": 3291,
      "GPU": 3292,
      "On": 3293,
      "TY": 3294,
      "TIM": 3295,
      "UT": 3296,
      "WOR": 3297,
      "bad": 3298,
      "bus": 3299,
      "cing": 3300,
      "code": 3301,
      "doc": 3302,
      "ever": 3303,
      "gad": 3304,
      "gleich": 3305,
      "great": 3306,
      "how": 3307,
      "len": 3308,
      "lar": 3309,
      "nte": 3310,
      "rad": 3311,
      "silly": 3312,
      "super": 3313,
      "ual": 3314,
      "uys": 3315,
      "wa": 3316,
      "will": 3317,
      "wee": 3318,
      "zieren": 3319,
      "¸ı": 3320,
      "ï¸ı": 3321,
      "Ġ23": 3322,
      "erst": 3323,
      "onen": 3324,
      "verage": 3325,
      "Ġmult": 3326,
      "Ġdo": 3327,
      "Ġdont": 3328,
      "Ġdrei": 3329,
      "Ġniklas": 3330,
      "Ġwg": 3331,
      "ings": 3332,
      "Ġball": 3333,
      "alten": 3334,
      "oun": 3335,
      "Ġcr": 3336,
      "Ġciao": 3337,
      "Ġgame": 3338,
      "eld": 3339,
      "ĠDing": 3340,
      "Ġpus": 3341,
      "Ġhaus": 3342,
      "Ġbew": 3343,
      "fekt": 3344,
      "homes": 3345,
      "arr": 3346,
      "Ġka": 3347,
      "Ġkacke": 3348,
      "ĠSam": 3349,
      "Ã¼gen": 3350,
      "Ġfunktion": 3351,
      "ĠAutom": 3352,
      "Ġziem": 3353,
      "264": 3354,
      "Ġschwar": 3355,
      "iger": 3356,
      "Ġviertel": 3357,
      "4358": 3358,
      "1066": 3359,
      "Ġiwie": 3360,
      "ĠKlausur": 3361,
      "634": 3362,
      "ĠHeut": 3363,
      "ĠNo": 3364,
      "ĠName": 3365,
      "Ġdenen": 3366,
      "ĠgehÃ¶rt": 3367,
      "Ġhabt": 3368,
      "agic": 3369,
      "Ġkanns": 3370,
      "260622": 3371,
      "14051": 3372,
      "andale": 3373,
      "Ġausge": 3374,
      "583": 3375,
      "5856": 3376,
      "ĠfÃ¼rs": 3377,
      "Ġschonmal": 3378,
      "ĠCoop": 3379,
      "Ġgleichzeit": 3380,
      "ĠOK": 3381,
      "1471": 3382,
      "1419": 3383,
      "ĠStand": 3384,
      "Ġabfahrt": 3385,
      "ĠZu": 3386,
      "ĠZug": 3387,
      "ĠðŁ§": 3388,
      "Ġwollt": 3389,
      "Ġwohin": 3390,
      "Ġgraph": 3391,
      "0743": 3392,
      "ĠSchlaf": 3393,
      "570": 3394,
      "Ġ24": 3395,
      "weis": 3396,
      "anken": 3397,
      "quandale": 3398,
      "Ġdrunter": 3399,
      "Ġprob": 3400,
      "ĠAlkohol": 3401,
      "Ġweniger": 3402,
      "Ġgeschafft": 3403,
      "mother": 3404,
      "Ġ=>": 3405,
      "Ġ:)": 3406,
      "Ġgoar": 3407,
      "ĠLeon": 3408,
      "Ġentz": 3409,
      "Ġyes": 3410,
      "solute": 3411,
      "formation": 3412,
      "Ġneues": 3413,
      "gabe": 3414,
      "kitten": 3415,
      "dingle": 3416,
      "holen": 3417,
      "istens": 3418,
      "ĠWochen": 3419,
      "modpackmodpackmodpackmodpackmodpackmodpackmodpackmodpackmodpackmodpackmodpackmodpackmodpackmodpackmodpackmodpack": 3420,
      "Ġfragen": 3421,
      "wohl": 3422,
      "Ġgebaut": 3423,
      "cooked": 3424,
      "MAX": 3425,
      "ĠHerz": 3426,
      "Ġapple": 3427,
      "ĠTermin": 3428,
      "dancing": 3429,
      "schizo": 3430,
      "isoft": 3431,
      "Ġphas": 3432,
      "OLLAMA": 3433,
      ":~/": 3434,
      "EOUT": 3435,
      "TIMEOUT": 3436,
      "however": 3437,
      "homeserver": 3438,
      "Ġziemlich": 3439,
      "26062299": 3440,
      "Ġgleichzeitig": 3441,
      ")=": 3442,
      "1186": 3443,
      "68": 3444,
      "70": 3445,
      "707": 3446,
      "938": 3447,
      "AS": 3448,
      "aun": 3449,
      "bauen": 3450,
      "cd": 3451,
      "gin": 3452,
      "gung": 3453,
      "hing": 3454,
      "km": 3455,
      "kte": 3456,
      "kabel": 3457,
      "mk": 3458,
      "mas": 3459,
      "memes": 3460,
      "ntt": 3461,
      "nah": 3462,
      "pga": 3463,
      "rist": 3464,
      "shin": 3465,
      "va": 3466,
      "vy": 3467,
      "wson": 3468,
      "Ġ%": 3469,
      "ĠĊ": 3470,
      "chts": 3471,
      "christ": 3472,
      "ored": 3473,
      "ende": 3474,
      "ator": 3475,
      "Ġae": 3476,
      "isk": 3477,
      "Ġhel": 3478,
      "Ġhand": 3479,
      "rochen": 3480,
      "Ġeier": 3481,
      "Ġwa": 3482,
      "Ġweh": 3483,
      "Ġwtf": 3484,
      "Ġoffen": 3485,
      "Ġback": 3486,
      "ations": 3487,
      "ndete": 3488,
      "Ġgay": 3489,
      "Ġguck": 3490,
      "ĠDr": 3491,
      "ĠDauert": 3492,
      "Ġhart": 3493,
      "Ġinter": 3494,
      "ĠMir": 3495,
      "ĠMÃ¶": 3496,
      "stick": 3497,
      "owndete": 3498,
      "throw": 3499,
      "Ġche": 3500,
      "iten": 3501,
      "itÃ¤t": 3502,
      "1344": 3503,
      "ark": 3504,
      "einander": 3505,
      "ĠSind": 3506,
      "ĠSinn": 3507,
      "ĠSame": 3508,
      "Ã¼hlt": 3509,
      "tennis": 3510,
      "Ġfact": 3511,
      "Ġfpga": 3512,
      "ĠAir": 3513,
      "ĠAso": 3514,
      "une": 3515,
      "668": 3516,
      "454": 3517,
      "ĠWÃ¤re": 3518,
      "entr": 3519,
      "263": 3520,
      "ram": 3521,
      "ray": 3522,
      "rakt": 3523,
      "ĠBald": 3524,
      "123": 3525,
      "beding": 3526,
      "Ġip": 3527,
      "ĠKre": 3528,
      "schauen": 3529,
      "ĠHol": 3530,
      "ĠNur": 3531,
      "ĠNuuh": 3532,
      "ĠGeb": 3533,
      "dead": 3534,
      "ĠJau": 3535,
      "ĠJemand": 3536,
      "521": 3537,
      "527": 3538,
      "Ġrip": 3539,
      "Ġrunden": 3540,
      "ĠEine": 3541,
      "ĠFuck": 3542,
      "Ġang": 3543,
      "Ġerschein": 3544,
      "Ġres": 3545,
      "Ġgeben": 3546,
      "ĠRip": 3547,
      "ĠLunge": 3548,
      "ĠPasst": 3549,
      "Ġnee": 3550,
      "1740": 3551,
      "Ġkommst": 3552,
      "Ġkommts": 3553,
      "odes": 3554,
      "Ġspa": 3555,
      "Ġunbeding": 3556,
      "imes": 3557,
      "ehrgang": 3558,
      "ics": 3559,
      "965": 3560,
      "ĠZonk": 3561,
      "Ġimage": 3562,
      "Ġimpl": 3563,
      "Ġ??": 3564,
      "ĠSchon": 3565,
      "hev": 3566,
      "Ġ21": 3567,
      "eeee": 3568,
      "9176": 3569,
      "ĠAlles": 3570,
      "wart": 3571,
      "Ġbrauchen": 3572,
      "Ġsollen": 3573,
      "ruh": 3574,
      "ĠEinsatz": 3575,
      "tok": 3576,
      "Ġunterwegs": 3577,
      "ĠLeben": 3578,
      "inky": 3579,
      "624": 3580,
      "ired": 3581,
      "ĠJoa": 3582,
      "Ġye": 3583,
      "Ġseid": 3584,
      "ĠKannst": 3585,
      "yshev": 3586,
      "ĠGibt": 3587,
      "Ġnaja": 3588,
      "ĠKommt": 3589,
      "ĠKommst": 3590,
      "unkte": 3591,
      "please": 3592,
      "140745": 3593,
      "Ġassem": 3594,
      "Ġcompiler": 3595,
      "9368": 3596,
      "mÃ¤ÃŁig": 3597,
      "Ġmoin": 3598,
      "Ġsicherlich": 3599,
      "Ġsowas": 3600,
      "yyy": 3601,
      "Ġschlecht": 3602,
      "keyboard": 3603,
      "metal": 3604,
      "ĠDanke": 3605,
      "monke": 3606,
      "Ġnebenbei": 3607,
      "ĊĠĠĠĠĠĠĠĠĠĠĠ": 3608,
      "Ġmittler": 3609,
      "ĠGesundheit": 3610,
      "christmas": 3611,
      "owndetector": 3612,
      "Ġunbedingt": 3613,
      "158": 3614,
      "295": 3615,
      "308": 3616,
      "3873": 3617,
      "3716": 3618,
      "471": 3619,
      "566": 3620,
      "592": 3621,
      "5936": 3622,
      "656": 3623,
      "740": 3624,
      "709": 3625,
      "829": 3626,
      "891": 3627,
      "998": 3628,
      "?=": 3629,
      "AM": 3630,
      "AACA": 3631,
      "CGCC": 3632,
      "GT": 3633,
      "GCA": 3634,
      "KEKW": 3635,
      "NS": 3636,
      "Se": 3637,
      "Sch": 3638,
      "UM": 3639,
      "Un": 3640,
      "acc": 3641,
      "bung": 3642,
      "cer": 3643,
      "cid": 3644,
      "corn": 3645,
      "clocked": 3646,
      "fun": 3647,
      "gg": 3648,
      "go": 3649,
      "gy": 3650,
      "hts": 3651,
      "iu": 3652,
      "lm": 3653,
      "lor": 3654,
      "listen": 3655,
      "md": 3656,
      "mus": 3657,
      "muss": 3658,
      "oC": 3659,
      "pa": 3660,
      "python": 3661,
      "pirate": 3662,
      "ror": 3663,
      "sam": 3664,
      "usten": 3665,
      "watt": 3666,
      "yu": 3667,
      "yard": 3668,
      "ches": 3669,
      "chines": 3670,
      "oret": 3671,
      "orts": 3672,
      "Ġsry": 3673,
      "Ġtick": 3674,
      "orden": 3675,
      "ordic": 3676,
      "Ġmen": 3677,
      "Ġhis": 3678,
      "Ġhinne": 3679,
      "Ġde": 3680,
      "Ġnic": 3681,
      "Ġnvm": 3682,
      "Ġwith": 3683,
      "ichten": 3684,
      "Ġbad": 3685,
      "oud": 3686,
      "Ġcordic": 3687,
      "laster": 3688,
      "legen": 3689,
      "rech": 3690,
      "Ġgei": 3691,
      "ĠglÃ¼ck": 3692,
      "uron": 3693,
      "cts": 3694,
      "fee": 3695,
      "ome": 3696,
      "4697": 3697,
      "7745": 3698,
      "1347": 3699,
      "user": 3700,
      "usch": 3701,
      "usste": 3702,
      "come": 3703,
      "Ġkp": 3704,
      "Ġkat": 3705,
      "ĠSeit": 3706,
      "ĠSachen": 3707,
      "3840": 3708,
      "essen": 3709,
      "Ġfunny": 3710,
      "Ġficken": 3711,
      "ĠAccount": 3712,
      "4548": 3713,
      "Ġisch": 3714,
      "Ġdahin": 3715,
      "Ġdaumen": 3716,
      "267123": 3717,
      "086": 3718,
      "ĠBilder": 3719,
      "1219": 3720,
      "1233": 3721,
      "Ġsofort": 3722,
      "gekommen": 3723,
      "4352": 3724,
      "43267123": 3725,
      "46643267123": 3726,
      "Ġlaut": 3727,
      "9448": 3728,
      "auft": 3729,
      "Ã¶re": 3730,
      "ĠHusten": 3731,
      "dev": 3732,
      "5219": 3733,
      "0903716": 3734,
      "ĠTage": 3735,
      "ĠTalk": 3736,
      "ĠText": 3737,
      "ĠEl": 3738,
      "93228": 3739,
      "ĠerzÃ¤": 3740,
      "7828": 3741,
      "eitung": 3742,
      "Ġreicht": 3743,
      "Ġgebr": 3744,
      "Ġgearbeitet": 3745,
      "ages": 3746,
      "ĠLust": 3747,
      "ĠLeitung": 3748,
      "altet": 3749,
      "174697": 3750,
      "558": 3751,
      "Ġbissle": 3752,
      "soft": 3753,
      "ĠsprÃ¼": 3754,
      "ĠspÃ¤testens": 3755,
      "eger": 3756,
      "ilde": 3757,
      "9882": 3758,
      "Ġwars": 3759,
      "22128": 3760,
      "aylor": 3761,
      "56177": 3762,
      "485": 3763,
      "479": 3764,
      "Ġumge": 3765,
      "ĠSchule": 3766,
      "eilen": 3767,
      "2943": 3768,
      "Ġvorne": 3769,
      "lac": 3770,
      "4477": 3771,
      "42106": 3772,
      "9117": 3773,
      "912850": 3774,
      "Ġart": 3775,
      "Ġarch": 3776,
      "osmeme": 3777,
      "Ġdruckt": 3778,
      "actical": 3779,
      "154": 3780,
      "spon": 3781,
      "neuron": 3782,
      "plink": 3783,
      "259": 3784,
      "Ġzumindest": 3785,
      "rÃ¼ckt": 3786,
      "CCTT": 3787,
      "CCGAA": 3788,
      "lowtier": 3789,
      "bruch": 3790,
      "Ã¤tze": 3791,
      "0448": 3792,
      "835": 3793,
      "6258": 3794,
      "Ġentweder": 3795,
      "Ġzwischen": 3796,
      "Ġsequen": 3797,
      "ĠNachrichten": 3798,
      "athisch": 3799,
      "Ġletz": 3800,
      "4502943": 3801,
      "Ġseite": 3802,
      "FAs": 3803,
      "ĠlÃ¤d": 3804,
      "chnik": 3805,
      "chnung": 3806,
      "Ġtrue": 3807,
      "Ġverstehen": 3808,
      "ĠverstÃ¤nd": 3809,
      "offentlich": 3810,
      "786458": 3811,
      "Ġgedauert": 3812,
      "ĠMeinung": 3813,
      "1439636": 3814,
      "ĠfrÃ¼h": 3815,
      "ĠfrÃ¼her": 3816,
      "1755635936": 3817,
      "CTCA": 3818,
      "Ġimmutable": 3819,
      "Ġimmernoch": 3820,
      "GCCGAA": 3821,
      "Ġzeugs": 3822,
      "0672628": 3823,
      "quest": 3824,
      "Ġsoweit": 3825,
      "1407463873": 3826,
      "11846643267123": 3827,
      "Ġoverclocked": 3828,
      "13893228": 3829,
      "319786458": 3830,
      "ĠheiÃŁt": 3831,
      "1763306": 3832,
      "Ġtrainiert": 3833,
      "LED": 3834,
      "ympathisch": 3835,
      "Ġkriegt": 3836,
      "Ã¶rper": 3837,
      "Ġbenutzt": 3838,
      "CTTCA": 3839,
      "spielen": 3840,
      "Ġschlimmer": 3841,
      "ĠPrÃ¼fung": 3842,
      "ĠFreundin": 3843,
      "Ġeffizient": 3844,
      "586643": 3845,
      "Ġfabric": 3846,
      "137185411356177": 3847,
      "32342": 3848,
      "12430672628": 3849,
      "ĠUrlaub": 3850,
      "Ġverpasst": 3851,
      "731192": 3852,
      "Ġnervig": 3853,
      "82912430672628": 3854,
      "wattosmeme": 3855,
      "chinese": 3856,
      "384022128": 3857,
      "1233319786458": 3858,
      "09037160448": 3859,
      "17469742106": 3860,
      "ĠsprÃ¼h": 3861,
      "912850731192": 3862,
      "plinker": 3863,
      "lowtiergod": 3864,
      "1439636912850731192": 3865,
      "1755635936561": 3866,
      "1407463873384022128": 3867,
      "1184664326712332342": 3868,
      "1389322809037160448": 3869,
      "1763306586643": 3870,
      "1371854113561776258": 3871,
      "829124306726289448": 3872,
      "wattosmemeyard": 3873,
      "12333197864584502943": 3874,
      "1746974210608": 3875,
      "226": 3876,
      "218": 3877,
      "223": 3878,
      "257": 3879,
      "242": 3880,
      "352": 3881,
      "440": 3882,
      "4112": 3883,
      "410966": 3884,
      "546": 3885,
      "65": 3886,
      "648": 3887,
      "607": 3888,
      "674": 3889,
      "756": 3890,
      "966": 3891,
      "916": 3892,
      "Ham": 3893,
      "Le": 3894,
      "OL": 3895,
      "TM": 3896,
      "ao": 3897,
      "ament": 3898,
      "ahlen": 3899,
      "car": 3900,
      "did": 3901,
      "eel": 3902,
      "gay": 3903,
      "ih": 3904,
      "ibe": 3905,
      "izen": 3906,
      "izzz": 3907,
      "kel": 3908,
      "kar": 3909,
      "luss": 3910,
      "loren": 3911,
      "may": 3912,
      "ns": 3913,
      "over": 3914,
      "plos": 3915,
      "rug": 3916,
      "sA": 3917,
      "sn": 3918,
      "sus": 3919,
      "she": 3920,
      "szeit": 3921,
      "skip": 3922,
      "tick": 3923,
      "uc": 3924,
      "uff": 3925,
      "way": 3926,
      "xD": 3927,
      "Ġ,": 3928,
      "Ġâ": 3929,
      "Ġord": 3930,
      "Ġ52": 3931,
      "Ġyour": 3932,
      "erweise": 3933,
      "inal": 3934,
      "inar": 3935,
      "asi": 3936,
      "enach": 3937,
      "Ġsk": 3938,
      "Ġsl": 3939,
      "Ġseh": 3940,
      "Ġtro": 3941,
      "Ġtol": 3942,
      "Ġtrei": 3943,
      "ĠmÃ¤d": 3944,
      "Ġdro": 3945,
      "Ġdunk": 3946,
      "Ġdev": 3947,
      "Ġdopp": 3948,
      "Ġoben": 3949,
      "Ġnow": 3950,
      "Ġwor": 3951,
      "Ġwunder": 3952,
      "Ġwichtig": 3953,
      "Ġwait": 3954,
      "ingt": 3955,
      "ichert": 3956,
      "Ġbl": 3957,
      "Ġbie": 3958,
      "Ġbre": 3959,
      "alph": 3960,
      "Ġcase": 3961,
      "Ġcould": 3962,
      "less": 3963,
      "lease": 3964,
      "real": 3965,
      "redd": 3966,
      "Ġgraf": 3967,
      "ads": 3968,
      "loc": 3969,
      "aps": 3970,
      "els": 3971,
      "bern": 3972,
      "appy": 3973,
      "Ġpu": 3974,
      "Ġpack": 3975,
      "Ġpasst": 3976,
      "Ġinve": 3977,
      "Ġinner": 3978,
      "Ġbeg": 3979,
      "Ġbek": 3980,
      "Ġbesten": 3981,
      "james": 3982,
      "ĠMÃ¼n": 3983,
      "tten": 3984,
      "sto": 3985,
      "Ġster": 3986,
      "Ġsah": 3987,
      "4640": 3988,
      "87952": 3989,
      "psi": 3990,
      "utor": 3991,
      "7133": 3992,
      "1351": 3993,
      "1319": 3994,
      "13930": 3995,
      "ĠSal": 3996,
      "ĠSkill": 3997,
      "Ã¼ss": 3998,
      "Ġfrei": 3999,
      "Ġfiles": 4000,
      "28910": 4001,
      "ĠAtt": 4002,
      "ĠArt": 4003,
      "Ã¤llt": 4004,
      "455": 4005,
      "4573": 4006,
      "4572": 4007,
      "ĠWlan": 4008,
      "ential": 4009,
      "905": 4010,
      "907": 4011,
      "Ġdauer": 4012,
      "Ġzp": 4013,
      "Ġeins": 4014,
      "Ġeinstellen": 4015,
      "265": 4016,
      "26090": 4017,
      "0815": 4018,
      "125": 4019,
      "1204": 4020,
      "1226090": 4021,
      "Ġsol": 4022,
      "4350": 4023,
      "104": 4024,
      "1017": 4025,
      "Ġiwas": 4026,
      "Ġlunge": 4027,
      "ĠKlar": 4028,
      "eihn": 4029,
      "Ġzug": 4030,
      "ĠGesch": 4031,
      "064572": 4032,
      "ĠJetz": 4033,
      "5299": 4034,
      "5274": 4035,
      "52240": 4036,
      "Ġdenke": 4037,
      "2094": 4038,
      "2073": 4039,
      "2009": 4040,
      "ĠTra": 4041,
      "ĠThe": 4042,
      "ĠTest": 4043,
      "teer": 4044,
      "9330": 4045,
      "931017": 4046,
      "ĠFach": 4047,
      "ĠFick": 4048,
      "1826": 4049,
      "781319": 4050,
      "Ġaufs": 4051,
      "Ġgekommen": 4052,
      "ĠRuhe": 4053,
      "agon": 4054,
      "ĠLeute": 4055,
      "ĠLay": 4056,
      "ĠPip": 4057,
      "1652240": 4058,
      "Ġnett": 4059,
      "sold": 4060,
      "sotre": 4061,
      "ume": 4062,
      "95910": 4063,
      "95931017": 4064,
      "58988": 4065,
      "imp": 4066,
      "abor": 4067,
      "abet": 4068,
      "ĠCrazy": 4069,
      "1410": 4070,
      "eller": 4071,
      "ittel": 4072,
      "Ġgesp": 4073,
      "hnt": 4074,
      "Ġguter": 4075,
      "Ġguten": 4076,
      "564112": 4077,
      "ippe": 4078,
      "Ġminec": 4079,
      "294640": 4080,
      "ixt": 4081,
      "anzer": 4082,
      "Ġvorge": 4083,
      "Ġvorallem": 4084,
      "endes": 4085,
      "hhhhh": 4086,
      "9150": 4087,
      "3674": 4088,
      "Ġprogramm": 4089,
      "2702": 4090,
      "html": 4091,
      "50921": 4092,
      "1595931017": 4093,
      "akao": 4094,
      "ivation": 4095,
      "ĠRett": 4096,
      "moteer": 4097,
      "Ġdeshalb": 4098,
      "Ġdeswegen": 4099,
      "Ã¤tzen": 4100,
      "imme": 4101,
      "locket": 4102,
      "peak": 4103,
      "370815": 4104,
      "Ġ80": 4105,
      "Ġunterschie": 4106,
      "ĠLevel": 4107,
      "inken": 4108,
      "Ġgefixt": 4109,
      "Ġliebe": 4110,
      "Ġliegt": 4111,
      "Ġzweit": 4112,
      "fao": 4113,
      "ĠUnter": 4114,
      "Ġshut": 4115,
      "8258988": 4116,
      "demon": 4117,
      "Ġmean": 4118,
      "Ġmeistens": 4119,
      "aptop": 4120,
      "Ġpingt": 4121,
      "Ġlernt": 4122,
      "ĠFreitag": 4123,
      "94002": 4124,
      "6662157": 4125,
      "Ġdieser": 4126,
      "5404": 4127,
      "gaben": 4128,
      "ĠfÃ¼hren": 4129,
      "18271": 4130,
      "CHAT": 4131,
      "fahrung": 4132,
      "Ġidee": 4133,
      "Ġgedacht": 4134,
      "114748": 4135,
      "crus": 4136,
      "produ": 4137,
      "2289477": 4138,
      "Ġcosmoteer": 4139,
      "20250921": 4140,
      "ĠnÃ¤chsten": 4141,
      "ĠnÃ¤chste": 4142,
      "Ġsitze": 4143,
      "135264": 4144,
      "Ġklein": 4145,
      "ĠSafe": 4146,
      "712318271": 4147,
      "903260": 4148,
      "50498": 4149,
      "ĠVorlesung": 4150,
      "ĠShit": 4151,
      "ĠBrand": 4152,
      "210564112": 4153,
      "Ġubisoft": 4154,
      "ĠPlatz": 4155,
      "ĠðŁĻģ": 4156,
      "ĠInformatik": 4157,
      "curr": 4158,
      "Ġtaktisch": 4159,
      "9326662157": 4160,
      "ĠStronghold": 4161,
      "Ġastra": 4162,
      "ĠscheiÃŁe": 4163,
      "987370815": 4164,
      "RDT": 4165,
      "Ġsmooth": 4166,
      "964490": 4167,
      "22950498": 4168,
      "1066756": 4169,
      "634964490": 4170,
      "14195274": 4171,
      "ĠStandard": 4172,
      "ĠðŁ§±": 4173,
      "Ġphasmo": 4174,
      "2262289477": 4175,
      "410966712318271": 4176,
      "plosion": 4177,
      "enachdem": 4178,
      "Ġtreiber": 4179,
      "ĠmÃ¤dchen": 4180,
      "alphabet": 4181,
      "Ġinvest": 4182,
      "7133410966712318271": 4183,
      "289105299": 4184,
      "1226090210564112": 4185,
      "eihnach": 4186,
      "2073876": 4187,
      "781319135264": 4188,
      "1652240064572": 4189,
      "sotred": 4190,
      "959101652240064572": 4191,
      "Ġminecraft": 4192,
      "367413930": 4193,
      "27022073876": 4194,
      "1595931017266": 4195,
      "825898827022073876": 4196,
      "CHATFISH": 4197,
      "1147481595931017266": 4198,
      "987370815634964490": 4199,
      "1066756781319135264": 4200,
      "2262289477294640": 4201,
      "2891052999326662157": 4202,
      "1226090210564112395": 4203,
      "010966": 4204,
      "187": 4205,
      "438": 4206,
      "793": 4207,
      "804": 4208,
      "971": 4209,
      "917": 4210,
      "9984": 4211,
      "=\"": 4212,
      "?!": 4213,
      "Bei": 4214,
      "CON": 4215,
      "DQ": 4216,
      "Du": 4217,
      "Heute": 4218,
      "ID": 4219,
      "IP": 4220,
      "ICH": 4221,
      "Jetzt": 4222,
      "RIS": 4223,
      "TO": 4224,
      "Wir": 4225,
      "ai": 4226,
      "bd": 4227,
      "bly": 4228,
      "cro": 4229,
      "can": 4230,
      "dre": 4231,
      "dfe": 4232,
      "dress": 4233,
      "fent": 4234,
      "fang": 4235,
      "hab": 4236,
      "hired": 4237,
      "iver": 4238,
      "ian": 4239,
      "jw": 4240,
      "kw": 4241,
      "kemon": 4242,
      "med": 4243,
      "mack": 4244,
      "magic": 4245,
      "neg": 4246,
      "naden": 4247,
      "oder": 4248,
      "uw": 4249,
      "wU": 4250,
      "wr": 4251,
      "wert": 4252,
      "with": 4253,
      "xx": 4254,
      "Â°": 4255,
      "Ìµ": 4256,
      "âĤ": 4257,
      "Ġ{": 4258,
      "Ġif": 4259,
      "Ġ45": 4260,
      "Ġ22": 4261,
      "Ġ91": 4262,
      "Ġ903260": 4263,
      "ash": 4264,
      "ĠsÃ¼": 4265,
      "Ġsei": 4266,
      "Ġsuch": 4267,
      "Ġtot": 4268,
      "Ġtldr": 4269,
      "Ġak": 4270,
      "Ġmore": 4271,
      "Ġdis": 4272,
      "Ġdre": 4273,
      "Ġoh": 4274,
      "rob": 4275,
      "Ġet": 4276,
      "Ġwein": 4277,
      "ĠwÃ¼n": 4278,
      "ange": 4279,
      "ality": 4280,
      "Ġcod": 4281,
      "ikum": 4282,
      "Ġgoogle": 4283,
      "Ġgnaden": 4284,
      "Ġplan": 4285,
      "Ġinv": 4286,
      "jaja": 4287,
      "ĠMusst": 4288,
      "stare": 4289,
      "stored": 4290,
      "stinky": 4291,
      "oned": 4292,
      "astat": 4293,
      "77090": 4294,
      "875128": 4295,
      "7174": 4296,
      "136": 4297,
      "3809": 4298,
      "cked": 4299,
      "Ã¼sste": 4300,
      "Ġfot": 4301,
      "Ġfahr": 4302,
      "ĠAm": 4303,
      "ĠAuch": 4304,
      "ĠIhr": 4305,
      "unfunny": 4306,
      "Ã¤lt": 4307,
      "ĠWen": 4308,
      "ĠWow": 4309,
      "ĠWÃ¼r": 4310,
      "ĠWtf": 4311,
      "909176": 4312,
      "516": 4313,
      "5123": 4314,
      "51527": 4315,
      "Ġdiesen": 4316,
      "ĠBro": 4317,
      "ĠBiss": 4318,
      "ĠBitte": 4319,
      "genshin": 4320,
      "bear": 4321,
      "become": 4322,
      "Ġjmd": 4323,
      "Ġvc": 4324,
      "Ġvib": 4325,
      "Ġvul": 4326,
      "Ġvoid": 4327,
      "4336": 4328,
      "103": 4329,
      "1087": 4330,
      "1042": 4331,
      "Ġice": 4332,
      "Ġlaufen": 4333,
      "ĠKein": 4334,
      "ĠKalt": 4335,
      "ĠKolle": 4336,
      "ĠKorre": 4337,
      "schule": 4338,
      "ĠNÃ¤": 4339,
      "ĠNicht": 4340,
      "ĠGet": 4341,
      "ĠJap": 4342,
      "ĠTou": 4343,
      "ĠEy": 4344,
      "ĠEher": 4345,
      "ĠFin": 4346,
      "ĠFÃ¼r": 4347,
      "ĠFlug": 4348,
      "Ġany": 4349,
      "Ġreg": 4350,
      "Ġrepo": 4351,
      "ĠLungen": 4352,
      "ĠLehrgang": 4353,
      "Ġalter": 4354,
      "ĠPaar": 4355,
      "ĠPiecewise": 4356,
      "ĠUwU": 4357,
      "ums": 4358,
      "Ġmeinst": 4359,
      "Ġausm": 4360,
      "Ġ126": 4361,
      "abil": 4362,
      "233": 4363,
      "2356": 4364,
      "ication": 4365,
      "986": 4366,
      "962": 4367,
      "ĠClair": 4368,
      "ĠOha": 4369,
      "ĠStra": 4370,
      "ĠStimmt": 4371,
      "ĠStrom": 4372,
      "ĠVon": 4373,
      "ople": 4374,
      "âĢ¦": 4375,
      "Ġumwand": 4376,
      "29380": 4377,
      "884358": 4378,
      "asser": 4379,
      "lafen": 4380,
      "ĠKommen": 4381,
      "anker": 4382,
      "osinus": 4383,
      "wars": 4384,
      "trans": 4385,
      "trash": 4386,
      "72828": 4387,
      "Ġgemein": 4388,
      "0373": 4389,
      "scheinend": 4390,
      "ĠWoll": 4391,
      "tole": 4392,
      "pokemon": 4393,
      "Ġirgendwie": 4394,
      "Ġ129": 4395,
      "ĠHabt": 4396,
      "Ġgefunden": 4397,
      "Ġmods": 4398,
      "ntag": 4399,
      "Ġboiz": 4400,
      "Ġliegen": 4401,
      "afc": 4402,
      "ximal": 4403,
      "oooooooo": 4404,
      "they": 4405,
      "ĠProgramm": 4406,
      "stellung": 4407,
      "Ġmaximal": 4408,
      "french": 4409,
      "Ġkeks": 4410,
      "ĠðŁĺ¦": 4411,
      "05965": 4412,
      "ERN": 4413,
      "offe": 4414,
      "ternal": 4415,
      "Ġgross": 4416,
      "ĠAhja": 4417,
      "arbeiten": 4418,
      "Ġletztes": 4419,
      "17556351527": 4420,
      "kkkk": 4421,
      "uddern": 4422,
      "rÃ¤nk": 4423,
      "ĠÃĦ": 4424,
      "ĠÃľ": 4425,
      "Ġunserem": 4426,
      "nuke": 4427,
      "140746058": 4428,
      "Ġwelcher": 4429,
      "9131042": 4430,
      "Ġeigenen": 4431,
      "creepy": 4432,
      "pressure": 4433,
      "ĠSave": 4434,
      "ĠDanach": 4435,
      "ĠMenschen": 4436,
      "6353809": 4437,
      "ĠThunder": 4438,
      "ĠCompiler": 4439,
      "137178010966": 4440,
      "1532": 4441,
      "smile": 4442,
      "ĠTele": 4443,
      "Komme": 4444,
      "Ġsetzen": 4445,
      "Ġmomentan": 4446,
      "gefÃ¤hr": 4447,
      "campaignid": 4448,
      "minecraft": 4449,
      "ĠPerfekt": 4450,
      "7464336": 4451,
      "Only": 4452,
      "074330": 4453,
      "weisung": 4454,
      "ĠDruck": 4455,
      "entrale": 4456,
      "raktikum": 4457,
      "Ġerscheinen": 4458,
      "Ġresult": 4459,
      "Ġimplement": 4460,
      "Ġmittlerweile": 4461,
      "80429380": 4462,
      "âĤ¬": 4463,
      "Ġgnadenlos": 4464,
      "7709005965": 4465,
      "875128074330": 4466,
      "909176875128074330": 4467,
      "ĠKollege": 4468,
      "23567174": 4469,
      "Ġumwandelt": 4470,
      "8843581": 4471,
      "transmit": 4472,
      "1755635152787": 4473,
      "1407460587709005965": 4474,
      "91310427464336": 4475,
      "6353809439": 4476,
      "1371780109668843581": 4477,
      "804293806353809439": 4478,
      "913104274643369984": 4479,
      "010": 4480,
      "418": 4481,
      "690": 4482,
      "963": 4483,
      "976": 4484,
      "An": 4485,
      "But": 4486,
      "CK": 4487,
      "EQ": 4488,
      "Fische": 4489,
      "FER": 4490,
      "GGA": 4491,
      "HA": 4492,
      "IR": 4493,
      "OD": 4494,
      "PY": 4495,
      "Qp": 4496,
      "So": 4497,
      "Sp": 4498,
      "Sho": 4499,
      "Slow": 4500,
      "bahn": 4501,
      "cant": 4502,
      "die": 4503,
      "del": 4504,
      "dition": 4505,
      "eicher": 4506,
      "fat": 4507,
      "fix": 4508,
      "gb": 4509,
      "giant": 4510,
      "hand": 4511,
      "jig": 4512,
      "ku": 4513,
      "kys": 4514,
      "mn": 4515,
      "nk": 4516,
      "nope": 4517,
      "oin": 4518,
      "ql": 4519,
      "ron": 4520,
      "sache": 4521,
      "tie": 4522,
      "tactical": 4523,
      "vl": 4524,
      "vtl": 4525,
      "win": 4526,
      "wann": 4527,
      "wick": 4528,
      "asy": 4529,
      "vert": 4530,
      "Ġtodes": 4531,
      "atio": 4532,
      "Ġaktiv": 4533,
      "Ġhot": 4534,
      "Ġdom": 4535,
      "ĠdÃ¼r": 4536,
      "Ġdale": 4537,
      "Ġop": 4538,
      "Ġeu": 4539,
      "ĠnÃ¤mlich": 4540,
      "Ġwach": 4541,
      "Ġwhy": 4542,
      "Ġbra": 4543,
      "Ġbahn": 4544,
      "alle": 4545,
      "iell": 4546,
      "leicht": 4547,
      "reffen": 4548,
      "reaaaa": 4549,
      "Ġgood": 4550,
      "look": 4551,
      "ĠDre": 4552,
      "urch": 4553,
      "Ġpo": 4554,
      "Ġhaia": 4555,
      "Ġbed": 4556,
      "ĠMutter": 4557,
      "stre": 4558,
      "Ġstatt": 4559,
      "4656": 4560,
      "4683": 4561,
      "Ġchef": 4562,
      "779488": 4563,
      "8713": 4564,
      "itel": 4565,
      "1348": 4566,
      "arget": 4567,
      "Ġki": 4568,
      "eins": 4569,
      "ehts": 4570,
      "40074": 4571,
      "40624": 4572,
      "Ġfick": 4573,
      "282": 4574,
      "904": 4575,
      "9080": 4576,
      "90952": 4577,
      "90188": 4578,
      "Ġeinein": 4579,
      "5146": 4580,
      "519080": 4581,
      "084548": 4582,
      "lud": 4583,
      "luster": 4584,
      "ĠBlock": 4585,
      "196": 4586,
      "19733": 4587,
      "Ġvideo": 4588,
      "4363": 4589,
      "101": 4590,
      "10716": 4591,
      "9490952": 4592,
      "auff": 4593,
      "ĠKont": 4594,
      "ĠKÃ¶rper": 4595,
      "hrer": 4596,
      "schreib": 4597,
      "ĠHum": 4598,
      "ĠGR": 4599,
      "06891": 4600,
      "93145": 4601,
      "9340624": 4602,
      "Ġann": 4603,
      "Ġrechts": 4604,
      "ĠPL": 4605,
      "164": 4606,
      "1626": 4607,
      "16207": 4608,
      "173": 4609,
      "5537": 4610,
      "Ġspamm": 4611,
      "ðŁ«": 4612,
      "1409966": 4613,
      "Ġausz": 4614,
      "5887": 4615,
      "5882": 4616,
      "ernob": 4617,
      "illed": 4618,
      "ims": 4619,
      "2325": 4620,
      "Ġlesen": 4621,
      "Ġlebst": 4622,
      "icy": 4623,
      "9808": 4624,
      "9867": 4625,
      "96985": 4626,
      "ĠCl": 4627,
      "ĠOma": 4628,
      "1438": 4629,
      "1423": 4630,
      "itter": 4631,
      "48163": 4632,
      "394718": 4633,
      "Ġverab": 4634,
      "Ġsiehts": 4635,
      "57283": 4636,
      "2987": 4637,
      "uked": 4638,
      "444": 4639,
      "atever": 4640,
      "Ġunsicher": 4641,
      "9158": 4642,
      "Ġseine": 4643,
      "Ġseinen": 4644,
      "aaaber": 4645,
      "spicy": 4646,
      "ĠÃ¼berall": 4647,
      "akist": 4648,
      "nose": 4649,
      "gerÃ¤": 4650,
      "25985": 4651,
      "Ġsollst": 4652,
      "Ġvielleicht": 4653,
      "Ġversuchen": 4654,
      "11126": 4655,
      "11779488": 4656,
      "Ġkoks": 4657,
      "Ġkoma": 4658,
      "5478": 4659,
      "Ġfehler": 4660,
      "ĠWohn": 4661,
      "iziert": 4662,
      "924363": 4663,
      "ĠmÃ¼ll": 4664,
      "ĠArsch": 4665,
      "831": 4666,
      "Ã¼nn": 4667,
      "Ġentwick": 4668,
      "pdf": 4669,
      "100127": 4670,
      "Ġtest": 4671,
      "Ã¤ndern": 4672,
      "ĠProbleme": 4673,
      "Ġkey": 4674,
      "convert": 4675,
      "540521": 4676,
      "13257283": 4677,
      "ĠmÃ¶chte": 4678,
      "shorts": 4679,
      "Ġevil": 4680,
      "Ġnehme": 4681,
      "ĠgedrÃ¼ckt": 4682,
      "schieÃŁ": 4683,
      "CTI": 4684,
      "108548": 4685,
      "!!!!": 4686,
      "116519080": 4687,
      "nommen": 4688,
      "cool": 4689,
      "doctor": 4690,
      "eyes": 4691,
      "97371": 4692,
      "97316207": 4693,
      "glish": 4694,
      "Ġursache": 4695,
      "ĠÃ¼bel": 4696,
      "aschine": 4697,
      "Ġgrinden": 4698,
      "Ġeinzige": 4699,
      "20990188": 4700,
      "2095537": 4701,
      "Ġoffiz": 4702,
      "4020592": 4703,
      "whatever": 4704,
      "ĠblÃ¶cke": 4705,
      "536768": 4706,
      "137178004": 4707,
      "15720990188": 4708,
      "Ġstellt": 4709,
      "Ġkenne": 4710,
      "21922016": 4711,
      "Ġinstalliert": 4712,
      "crying": 4713,
      "iagnose": 4714,
      "Ġdefin": 4715,
      "ĠAugen": 4716,
      "DieBut": 4717,
      "ĠElektro": 4718,
      "msweise": 4719,
      "Ġtyp": 4720,
      "ðŁĺħ": 4721,
      "klusion": 4722,
      "Ġmassiv": 4723,
      "Ġfunzt": 4724,
      "17562325": 4725,
      "ĠOpenGL": 4726,
      "nahmsweise": 4727,
      "Ġcheck": 4728,
      "13444656": 4729,
      "4544020592": 4730,
      "ĠLebens": 4731,
      "936813257283": 4732,
      "Ġgeiles": 4733,
      "sponge": 4734,
      "fatass": 4735,
      "Ġhotfix": 4736,
      "Ġdomain": 4737,
      "reaaaaaa": 4738,
      "084548831": 4739,
      "19733536768": 4740,
      "10716100127": 4741,
      "949095273": 4742,
      "ĠHumor": 4743,
      "06891540521": 4744,
      "934062419733536768": 4745,
      "Ġspammt": 4746,
      "14099662095537": 4747,
      "ernobyl": 4748,
      "96985465": 4749,
      "481631": 4750,
      "39471825985": 4751,
      "akistan": 4752,
      "1112639471825985": 4753,
      "1177948897371": 4754,
      "9243635742": 4755,
      "Ġentwickelt": 4756,
      "1085481177948897371": 4757,
      "1165190809243635742": 4758,
      "97316207949095273": 4759,
      "1371780044544020592": 4760,
      "15720990188084548831": 4761,
      "DieButSlow": 4762,
      "1756232540074": 4763,
      "1344465606891540521": 4764,
      "936813257283481631": 4765,
      "1071610012796985465": 4766,
      "1409966209553793145": 4767,
      "1112639471825985668": 4768,
      "-_": 4769,
      "/?": 4770,
      "24": 4771,
      "255": 4772,
      "253": 4773,
      "244": 4774,
      "3067": 4775,
      "37848": 4776,
      "448": 4777,
      "563": 4778,
      "595": 4779,
      "59966": 4780,
      "59330": 4781,
      "62206": 4782,
      "795": 4783,
      "727": 4784,
      "7873": 4785,
      "72009": 4786,
      "847": 4787,
      "928": 4788,
      "955": 4789,
      "996": 4790,
      "9985": 4791,
      "<:": 4792,
      "AK": 4793,
      "Cat": 4794,
      "EB": 4795,
      "FD": 4796,
      "Hab": 4797,
      "Loading": 4798,
      "Man": 4799,
      "NI": 4800,
      "NW": 4801,
      "Po": 4802,
      "Script": 4803,
      "Tu": 4804,
      "ahl": 4805,
      "ble": 4806,
      "bes": 4807,
      "bies": 4808,
      "cj": 4809,
      "co": 4810,
      "ced": 4811,
      "core": 4812,
      "ds": 4813,
      "dir": 4814,
      "ech": 4815,
      "for": 4816,
      "fund": 4817,
      "fag": 4818,
      "fish": 4819,
      "gis": 4820,
      "gum": 4821,
      "gine": 4822,
      "guckt": 4823,
      "hÃ¶": 4824,
      "hamp": 4825,
      "horse": 4826,
      "happy": 4827,
      "ker": 4828,
      "kunde": 4829,
      "ling": 4830,
      "lung": 4831,
      "mt": 4832,
      "math": 4833,
      "melden": 4834,
      "non": 4835,
      "nst": 4836,
      "ossen": 4837,
      "pre": 4838,
      "ratz": 4839,
      "sf": 4840,
      "sat": 4841,
      "sur": 4842,
      "teil": 4843,
      "uell": 4844,
      "uage": 4845,
      "uÃŁen": 4846,
      "windows": 4847,
      "wnn": 4848,
      "yin": 4849,
      "ysch": 4850,
      "yball": 4851,
      "zing": 4852,
      "zimmer": 4853,
      "Ġ}": 4854,
      "Ġll": 4855,
      "Ġ90": 4856,
      "ĠÃŁ": 4857,
      "era": 4858,
      "ery": 4859,
      "erle": 4860,
      "ins": 4861,
      "ined": 4862,
      "inell": 4863,
      "ene": 4864,
      "ence": 4865,
      "ensho": 4866,
      "Ġsant": 4867,
      "Ġter": 4868,
      "ĠtÃ¤": 4869,
      "Ġtreib": 4870,
      "ativ": 4871,
      "Ġag": 4872,
      "Ġaid": 4873,
      "ison": 4874,
      "ised": 4875,
      "iste": 4876,
      "isieren": 4877,
      "istern": 4878,
      "Ġmc": 4879,
      "Ġmathe": 4880,
      "Ġhell": 4881,
      "Ġhob": 4882,
      "Ġhuren": 4883,
      "Ġhetzner": 4884,
      "Ġold": 4885,
      "Ġopen": 4886,
      "Ġem": 4887,
      "Ġever": 4888,
      "Ġeure": 4889,
      "Ġnap": 4890,
      "Ġnennt": 4891,
      "Ġniemand": 4892,
      "Ġwoch": 4893,
      "Ġway": 4894,
      "Ġweb": 4895,
      "Ġwould": 4896,
      "Ġweibsvolk": 4897,
      "anonen": 4898,
      "inger": 4899,
      "ingend": 4900,
      "Ġbit": 4901,
      "Ġbod": 4902,
      "ala": 4903,
      "alent": 4904,
      "iona": 4905,
      "iker": 4906,
      "ikament": 4907,
      "ieb": 4908,
      "leg": 4909,
      "Ġgu": 4910,
      "Ġgot": 4911,
      "Ġgab": 4912,
      "loch": 4913,
      "apast": 4914,
      "ĠDicke": 4915,
      "kom": 4916,
      "Ġpum": 4917,
      "Ġpul": 4918,
      "Ġpennen": 4919,
      "Ġinte": 4920,
      "Ġbege": 4921,
      "Ġbeist": 4922,
      "Ġbeloved": 4923,
      "ĠMB": 4924,
      "ĠMon": 4925,
      "ĠMom": 4926,
      "ĠMittag": 4927,
      "ĠMoment": 4928,
      "ĠMuddern": 4929,
      "tte": 4930,
      "stet": 4931,
      "ida": 4932,
      "thy": 4933,
      "Ġste": 4934,
      "Ġstat": 4935,
      "Ġstand": 4936,
      "Ġstop": 4937,
      "Ġstunden": 4938,
      "Ġstelle": 4939,
      "Ġsamm": 4940,
      "hop": 4941,
      "ito": 4942,
      "itoren": 4943,
      "ifs": 4944,
      "eter": 4945,
      "Ġkag": 4946,
      "Ġkucken": 4947,
      "ĠkÃ¼mm": 4948,
      "Ġkeller": 4949,
      "ĠSel": 4950,
      "ĠSit": 4951,
      "ĠSet": 4952,
      "389": 4953,
      "3806": 4954,
      "Ã¼l": 4955,
      "Ġform": 4956,
      "Ġfile": 4957,
      "Ġfax": 4958,
      "ĠfÃ¤llt": 4959,
      "Ġfiona": 4960,
      "ĠIST": 4961,
      "ĠWG": 4962,
      "ĠWelt": 4963,
      "ĠWeihnach": 4964,
      "ĠWahl": 4965,
      "90433": 4966,
      "Ġzahlen": 4967,
      "Ġeinf": 4968,
      "Ġeines": 4969,
      "2643": 4970,
      "2652": 4971,
      "2622": 4972,
      "raight": 4973,
      "Ġsche": 4974,
      "Ġschmer": 4975,
      "Ġschicken": 4976,
      "503": 4977,
      "5071": 4978,
      "5076": 4979,
      "ĠBy": 4980,
      "ĠBild": 4981,
      "ĠBasti": 4982,
      "198": 4983,
      "191984": 4984,
      "121": 4985,
      "12114": 4986,
      "1259": 4987,
      "12487": 4988,
      "Ġnichtmal": 4989,
      "gelegt": 4990,
      "Ġjap": 4991,
      "ĠvÃ¶": 4992,
      "edikament": 4993,
      "mentally": 4994,
      "Ġlf": 4995,
      "Ġladen": 4996,
      "Ġlaptop": 4997,
      "949": 4998,
      "9416": 4999,
      "ĠKrass": 5000,
      "Ã¶s": 5001,
      "Ã¶ÃŁ": 5002,
      "hrend": 5003,
      "630": 5004,
      "scheb": 5005,
      "schlaf": 5006,
      "ĠHinter": 5007,
      "ĠNer": 5008,
      "ĠGame": 5009,
      "ĠGef": 5010,
      "ĠGott": 5011,
      "ierten": 5012,
      "depress": 5013,
      "7613": 5014,
      "7618": 5015,
      "762206": 5016,
      "76795": 5017,
      "520": 5018,
      "529150": 5019,
      "unger": 5020,
      "ungss": 5021,
      "2025": 5022,
      "2037848": 5023,
      "text": 5024,
      "ĠFam": 5025,
      "ĠFalsch": 5026,
      "18280": 5027,
      "185404": 5028,
      "Ġangst": 5029,
      "Ġanmelden": 5030,
      "Ġredu": 5031,
      "ĠRender": 5032,
      "ĠListe": 5033,
      "ĠPar": 5034,
      "ĠPart": 5035,
      "ĠPlan": 5036,
      "ĠPause": 5037,
      "1690": 5038,
      "1622": 5039,
      "16919": 5040,
      "619219": 5041,
      "ĠUpd": 5042,
      "Ġunm": 5043,
      "9590": 5044,
      "1405113": 5045,
      "305": 5046,
      "3013": 5047,
      "3093": 5048,
      "uchs": 5049,
      "uchten": 5050,
      "Ġausvers": 5051,
      "amera": 5052,
      "about": 5053,
      "2394002": 5054,
      "23305": 5055,
      "Ġleg": 5056,
      "Ġlegen": 5057,
      "Ġlebt": 5058,
      "ĠfÃ¼rn": 5059,
      "icro": 5060,
      "9856": 5061,
      "961843": 5062,
      "ĠCode": 5063,
      "ĠChat": 5064,
      "1418": 5065,
      "14410": 5066,
      "227": 5067,
      "22455": 5068,
      "ĠStÃ¼ck": 5069,
      "ktur": 5070,
      "Ġaba": 5071,
      "Ġabsch": 5072,
      "Ġabgesch": 5073,
      "ĠVolk": 5074,
      "olon": 5075,
      "140507873": 5076,
      "486": 5077,
      "478790": 5078,
      "4792": 5079,
      "Ġvern": 5080,
      "Ġverbess": 5081,
      "072394002": 5082,
      "Ġsiehst": 5083,
      "ĠSchw": 5084,
      "cept": 5085,
      "Ġminuten": 5086,
      "3321": 5087,
      "33352": 5088,
      "33595": 5089,
      "Ġrange": 5090,
      "Ġnachts": 5091,
      "972622": 5092,
      "9733595": 5093,
      "lagen": 5094,
      "inear": 5095,
      "quiv": 5096,
      "9171": 5097,
      "Ġhaste": 5098,
      "lauf": 5099,
      "364": 5100,
      "36750": 5101,
      "actions": 5102,
      "box": 5103,
      "ivate": 5104,
      "nect": 5105,
      "plant": 5106,
      "german": 5107,
      "ĠRest": 5108,
      "25984": 5109,
      "Ġlangsam": 5110,
      "Ġversucht": 5111,
      "ĠwÃ¤hrend": 5112,
      "ryp": 5113,
      "Ġherz": 5114,
      "Ġherren": 5115,
      "rieg": 5116,
      "0218": 5117,
      "02060": 5118,
      "bler": 5119,
      "ĠFinni": 5120,
      "usty": 5121,
      "ĠhÃ¤lt": 5122,
      "ĠdrauÃŁen": 5123,
      "ezi": 5124,
      "ĠgefÃ¤hr": 5125,
      "Ġmodel": 5126,
      "ĠErfahrung": 5127,
      "ĠAngst": 5128,
      "Ġentsp": 5129,
      "3218280": 5130,
      "Ġsec": 5131,
      "Ġgarnet": 5132,
      "Ġ01": 5133,
      "ĠLuzy": 5134,
      "100635": 5135,
      "82786": 5136,
      "Ġtele": 5137,
      "ĠProf": 5138,
      "10914410": 5139,
      "8040": 5140,
      "ithmus": 5141,
      "930660": 5142,
      "prime": 5143,
      "prised": 5144,
      "1713806": 5145,
      "150930660": 5146,
      "94039": 5147,
      "Ġdarfst": 5148,
      "15582786": 5149,
      "ĠðŁĺ¶": 5150,
      "126146": 5151,
      "Ġfreude": 5152,
      "Ġjede": 5153,
      "ialbruch": 5154,
      "chnen": 5155,
      "esto": 5156,
      "260430": 5157,
      "Ġnehm": 5158,
      "Ġroast": 5159,
      "ĠCheck": 5160,
      "1772971": 5161,
      "750238": 5162,
      "prochen": 5163,
      "laublich": 5164,
      "Ġquasi": 5165,
      "Ġgezogen": 5166,
      "grad": 5167,
      "grund": 5168,
      "guy": 5169,
      "Ã¤hrst": 5170,
      "116256": 5171,
      "Ġgotta": 5172,
      "24072009": 5173,
      "ĠGegen": 5174,
      "247439": 5175,
      "olleyball": 5176,
      "Ġschlechte": 5177,
      "23602060": 5178,
      "layer": 5179,
      "265859330": 5180,
      "410478790": 5181,
      "creensho": 5182,
      "Ġgenerell": 5183,
      "ĠmÃ¶glichst": 5184,
      "1663067": 5185,
      "veling": 5186,
      "Ġcooked": 5187,
      "Ġfritz": 5188,
      "ĠVorlesungen": 5189,
      "riminell": 5190,
      "465265859330": 5191,
      "ĠblÃ¶d": 5192,
      "810709": 5193,
      "kissxs": 5194,
      "ĠMinuten": 5195,
      "gehauen": 5196,
      "Ġbringt": 5197,
      "ĠObscur": 5198,
      "951972622": 5199,
      "atrapast": 5200,
      "Ġmonitoren": 5201,
      "Ġpartialbruch": 5202,
      "21923093": 5203,
      "ĠerklÃ¤rt": 5204,
      "punch": 5205,
      "Ġfixen": 5206,
      "Ġscheinbar": 5207,
      "ĠKek": 5208,
      "ĠZeug": 5209,
      "Ġvertraut": 5210,
      "72976795": 5211,
      "Ġdownload": 5212,
      "ĠBereit": 5213,
      "925465265859330": 5214,
      "Also": 5215,
      "betrug": 5216,
      "Ġunglaublich": 5217,
      "rrrgay": 5218,
      "17550755": 5219,
      "docks": 5220,
      "superrrrgay": 5221,
      "Ġbewusst": 5222,
      "ĠSamstag": 5223,
      "Ġprobiert": 5224,
      "funct": 5225,
      "lmfao": 5226,
      "ĠEltern": 5227,
      "Ġgebracht": 5228,
      "98829856": 5229,
      "44773321": 5230,
      "Ġartzt": 5231,
      "Ġletzten": 5232,
      "ĠverstÃ¤ndlich": 5233,
      "szeitbetrug": 5234,
      "ways": 5235,
      "Ġordentlich": 5236,
      "inararbeit": 5237,
      "Ġtolles": 5238,
      "Ġdunkel": 5239,
      "Ġbieten": 5240,
      "Ġgrafana": 5241,
      "1351727": 5242,
      "soldier": 5243,
      "Ġunterschied": 5244,
      "products": 5245,
      "winrar": 5246,
      "ðŁ«ł": 5247,
      "59966457": 5248,
      "62206191984": 5249,
      "955410478790": 5250,
      "998550": 5251,
      "dirty": 5252,
      "hÃ¶ren": 5253,
      "hampter": 5254,
      "nonagon": 5255,
      "surprised": 5256,
      "yschow": 5257,
      "Ġllm": 5258,
      "ĠtÃ¤glich": 5259,
      "Ġaids": 5260,
      "Ġoldfag": 5261,
      "Ġwoche": 5262,
      "Ġwebsite": 5263,
      "Ġpumpe": 5264,
      "Ġbeistehen": 5265,
      "ĠkÃ¼mmern": 5266,
      "12114810709": 5267,
      "124871622": 5268,
      "schebyschow": 5269,
      "762206998550": 5270,
      "52915044": 5271,
      "20378488": 5272,
      "ĠFamil": 5273,
      "185404150930660": 5274,
      "1691959966457": 5275,
      "619219762206998550": 5276,
      "ĠUpdates": 5277,
      "96184333352": 5278,
      "22455514": 5279,
      "1405078731713806": 5280,
      "0723940024350": 5281,
      "973359572976795": 5282,
      "quivalent": 5283,
      "ĠgefÃ¤hrlich": 5284,
      "321828036750": 5285,
      "10063596184333352": 5286,
      "1091441098829856": 5287,
      "940397618": 5288,
      "1558278623305": 5289,
      "1261461558278623305": 5290,
      "26043045": 5291,
      "17729711691959966457": 5292,
      "1162560723940024350": 5293,
      "24743996": 5294,
      "23602060140": 5295,
      "creenshot": 5296,
      "166306744773321": 5297,
      "kissxsis": 5298,
      "951972622940397618": 5299,
      "atrapaste": 5300,
      "Ġpartialbruchzer": 5301,
      "925465265859330090": 5302,
      "1351727321828036750": 5303,
      "6220619198421923093": 5304,
      "955410478790750238": 5305,
      "1211481070952915044": 5306,
      "12487162223602060140": 5307,
      "1854041509306605219": 5308,
      "1405078731713806448": 5309,
      "973359572976795648": 5310,
      "1006359618433335296": 5311,
      "1091441098829856949": 5312,
      "16630674477332190433": 5313,
      "'t": 5314,
      ")*": 5315,
      ".\"": 5316,
      "0146": 5317,
      "251": 5318,
      "248": 5319,
      "943": 5320,
      "?\"": 5321,
      "As": 5322,
      "CF": 5323,
      "Da": 5324,
      "Junge": 5325,
      "LT": 5326,
      "Oh": 5327,
      "Pro": 5328,
      "St": 5329,
      "Sinus": 5330,
      "ZA": 5331,
      "az": 5332,
      "aos": 5333,
      "bau": 5334,
      "bald": 5335,
      "byshev": 5336,
      "cit": 5337,
      "cop": 5338,
      "dra": 5339,
      "dog": 5340,
      "deutsch": 5341,
      "ea": 5342,
      "eople": 5343,
      "fal": 5344,
      "fass": 5345,
      "flie": 5346,
      "gre": 5347,
      "gibt": 5348,
      "hle": 5349,
      "hid": 5350,
      "hÃ¤lt": 5351,
      "iar": 5352,
      "jum": 5353,
      "kes": 5354,
      "lication": 5355,
      "mach": 5356,
      "mÃ¼": 5357,
      "normal": 5358,
      "richt": 5359,
      "sy": 5360,
      "sad": 5361,
      "sÃ¤": 5362,
      "uÃŁer": 5363,
      "vc": 5364,
      "vh": 5365,
      "vitt": 5366,
      "when": 5367,
      "woll": 5368,
      "what": 5369,
      "yrim": 5370,
      "Â²": 5371,
      "Â´": 5372,
      "Ġ^": 5373,
      "Ġik": 5374,
      "Ġatt": 5375,
      "Ġ97": 5376,
      "ĠÐĺ": 5377,
      "ĪĪ": 5378,
      "eric": 5379,
      "orf": 5380,
      "orp": 5381,
      "orses": 5382,
      "Ġsc": 5383,
      "Ġsystem": 5384,
      "Ġta": 5385,
      "Ġtoo": 5386,
      "Ġtief": 5387,
      "Ġaut": 5388,
      "Ġmor": 5389,
      "Ġmatch": 5390,
      "Ġmind": 5391,
      "Ġmuch": 5392,
      "Ġmot": 5393,
      "Ġhm": 5394,
      "Ġhor": 5395,
      "Ġhoffe": 5396,
      "Ġdat": 5397,
      "Ġdrow": 5398,
      "Ġdicke": 5399,
      "room": 5400,
      "Ġez": 5401,
      "Ġnik": 5402,
      "Ġnam": 5403,
      "Ġnimm": 5404,
      "Ġwr": 5405,
      "Ġwahr": 5406,
      "Ġwhen": 5407,
      "Ġoft": 5408,
      "ksong": 5409,
      "ane": 5410,
      "anfall": 5411,
      "inge": 5412,
      "Ġbid": 5413,
      "Ġbast": 5414,
      "Ġbau": 5415,
      "Ġbier": 5416,
      "Ġbru": 5417,
      "Ġbrain": 5418,
      "Ġbusty": 5419,
      "also": 5420,
      "Ġcss": 5421,
      "Ġcream": 5422,
      "Ġconse": 5423,
      "lebr": 5424,
      "redet": 5425,
      "annte": 5426,
      "Ġgra": 5427,
      "Ġgoog": 5428,
      "Ġghid": 5429,
      "address": 5430,
      "ĠDe": 5431,
      "ĠDich": 5432,
      "ĠDachte": 5433,
      "ĠDisk": 5434,
      "application": 5435,
      "Ġpi": 5436,
      "Ġpl": 5437,
      "Ġpre": 5438,
      "Ġpix": 5439,
      "Ġpos": 5440,
      "Ġpower": 5441,
      "Ġpeople": 5442,
      "Ġinf": 5443,
      "Ġinnen": 5444,
      "Ġbeide": 5445,
      "ĠMer": 5446,
      "ĠMacht": 5447,
      "ĠMac": 5448,
      "tto": 5449,
      "stes": 5450,
      "stÃ¼t": 5451,
      "achts": 5452,
      "467": 5453,
      "4620": 5454,
      "4633": 5455,
      "46155": 5456,
      "Ġ<@&": 5457,
      "7754": 5458,
      "77443": 5459,
      "pscare": 5460,
      "ita": 5461,
      "71487": 5462,
      "130": 5463,
      "137": 5464,
      "1366": 5465,
      "1321": 5466,
      "1369": 5467,
      "Ġui": 5468,
      "ars": 5469,
      "Ġkalt": 5470,
      "Ġkill": 5471,
      "Ġkrank": 5472,
      "Ġkkk": 5473,
      "Ġkriminell": 5474,
      "ĠServer": 5475,
      "ĠSeg": 5476,
      "ĠSympathisch": 5477,
      "388": 5478,
      "3894": 5479,
      "Ã¼che": 5480,
      "Ġfro": 5481,
      "Ġfpu": 5482,
      "Ġflie": 5483,
      "Ġflag": 5484,
      "Ġfinde": 5485,
      "Ġfneg": 5486,
      "ĠAs": 5487,
      "ĠAy": 5488,
      "ĠActually": 5489,
      "ĠAuft": 5490,
      "ĠAverage": 5491,
      "ĠAaaaber": 5492,
      "Ã¤hlt": 5493,
      "ĠWild": 5494,
      "ĠWhat": 5495,
      "ĠWeibsvolk": 5496,
      "ichtlich": 5497,
      "Ġdash": 5498,
      "2647": 5499,
      "2632": 5500,
      "Ġschade": 5501,
      "Ġschuf": 5502,
      "igh": 5503,
      "igstens": 5504,
      "08938": 5505,
      "505": 5506,
      "ĠBau": 5507,
      "ĠBah": 5508,
      "ĠBring": 5509,
      "19274": 5510,
      "1296": 5511,
      "1275": 5512,
      "127754": 5513,
      "Ġsoft": 5514,
      "gener": 5515,
      "Ġjop": 5516,
      "Ġjungs": 5517,
      "Ġvps": 5518,
      "Ġvog": 5519,
      "4334": 5520,
      "eds": 5521,
      "10000": 5522,
      "Ġihre": 5523,
      "Ġlade": 5524,
      "Ġlaber": 5525,
      "ĠlÃ¶sen": 5526,
      "Ġlkw": 5527,
      "942": 5528,
      "auerst": 5529,
      "ĠKon": 5530,
      "ĠKÃ¶nn": 5531,
      "ĠKinder": 5532,
      "ĠKrieg": 5533,
      "hrlich": 5534,
      "6393": 5535,
      "scht": 5536,
      "schicht": 5537,
      "ĠHel": 5538,
      "ĠHÃ¤": 5539,
      "ĠHÃ¶": 5540,
      "ĠHard": 5541,
      "ĠHatte": 5542,
      "ĠHoffentlich": 5543,
      "ĠNee": 5544,
      "ĠNah": 5545,
      "ĠNpm": 5546,
      "ĠGer": 5547,
      "ĠGramm": 5548,
      "ĠGuys": 5549,
      "ĠJF": 5550,
      "ĠJe": 5551,
      "ĠJed": 5552,
      "ĠJop": 5553,
      "ĠJenachdem": 5554,
      "2071": 5555,
      "ĠTf": 5556,
      "ĠTr": 5557,
      "ĠTach": 5558,
      "ĠTaylor": 5559,
      "ĠEn": 5560,
      "ĠEig": 5561,
      "ĠEvtl": 5562,
      "ĠFr": 5563,
      "ĠFunktion": 5564,
      "18120": 5565,
      "Ġanfangen": 5566,
      "Ġantritt": 5567,
      "Ġanschauen": 5568,
      "Ġanscheinend": 5569,
      "inden": 5570,
      "Ġerfr": 5571,
      "Ġerfol": 5572,
      "7809": 5573,
      "Ġreden": 5574,
      "Ġgest": 5575,
      "Ġgelesen": 5576,
      "ĠRang": 5577,
      "agine": 5578,
      "ĠLet": 5579,
      "ĠLOL": 5580,
      "ĠPo": 5581,
      "ĠPass": 5582,
      "Ġspiele": 5583,
      "Ġjagen": 5584,
      "Ġjahren": 5585,
      "ĠungefÃ¤hr": 5586,
      "14073": 5587,
      "ischendes": 5588,
      "589": 5589,
      "58876": 5590,
      "58942": 5591,
      "ernt": 5592,
      "Ġ128": 5593,
      "ilksong": 5594,
      "Ġleicht": 5595,
      "Ġleude": 5596,
      "981": 5597,
      "983": 5598,
      "9807": 5599,
      "98100": 5600,
      "9818120": 5601,
      "964334": 5602,
      "have": 5603,
      "haft": 5604,
      "ĠCa": 5605,
      "Ġgleiche": 5606,
      "ĠOr": 5607,
      "ĠOut": 5608,
      "ĠOhne": 5609,
      "14964334": 5610,
      "ĠStress": 5611,
      "ktion": 5612,
      "ktop": 5613,
      "Ġabgel": 5614,
      "ellt": 5615,
      "ĠVar": 5616,
      "ĠVoice": 5617,
      "herung": 5618,
      "ĠZum": 5619,
      "Ġgesund": 5620,
      "Ġgespe": 5621,
      "ophren": 5622,
      "Ġverges": 5623,
      "Ġvergeben": 5624,
      "Ġverloren": 5625,
      "Ġwert": 5626,
      "Ġwerdn": 5627,
      "Ġerstellt": 5628,
      "ipp": 5629,
      "ĠSchn": 5630,
      "celebr": 5631,
      "ĠJava": 5632,
      "53788": 5633,
      "53962": 5634,
      "Ġ101": 5635,
      "9708": 5636,
      "Ġamb": 5637,
      "Ġamet": 5638,
      "Ġraw": 5639,
      "442071": 5640,
      "web": 5641,
      "weif": 5642,
      "weird": 5643,
      "4223": 5644,
      "Ġgenial": 5645,
      "Ġgenutzt": 5646,
      "osis": 5647,
      "Ġdruck": 5648,
      "Ġdrinnen": 5649,
      "Ġprodu": 5650,
      "27466": 5651,
      "27908": 5652,
      "ĠAls": 5653,
      "next": 5654,
      "Ġhalten": 5655,
      "ĠRek": 5656,
      "ĠRecord": 5657,
      "254": 5658,
      "scream": 5659,
      "Ġlanguage": 5660,
      "upport": 5661,
      "Ġ=(": 5662,
      "Ġ:\\": 5663,
      "ĠweiÃŁt": 5664,
      "lown": 5665,
      "ĠSoll": 5666,
      "ĠSobald": 5667,
      "issiles": 5668,
      "ĠEinmal": 5669,
      "Ġ35": 5670,
      "Ġ64": 5671,
      "brigen": 5672,
      "Ġexternal": 5673,
      "explosion": 5674,
      "Ġ127": 5675,
      "ĠunterstÃ¼t": 5676,
      "Ġgefahren": 5677,
      "Ġboa": 5678,
      "Ġboy": 5679,
      "Ġboizzz": 5680,
      "ĠAnno": 5681,
      "8922": 5682,
      "Ġentschie": 5683,
      "Ġyay": 5684,
      "Ġyarr": 5685,
      "Ġangekommen": 5686,
      "angens": 5687,
      "ĠImagine": 5688,
      "Ġteuer": 5689,
      "getrÃ¤nk": 5690,
      "ĠProje": 5691,
      "brechen": 5692,
      "1755607": 5693,
      "175508938": 5694,
      "OOLT": 5695,
      "stellt": 5696,
      "807809": 5697,
      "rotate": 5698,
      "Ġbeschrieben": 5699,
      "Ġnaval": 5700,
      "113300": 5701,
      "ĠGrad": 5702,
      "18646155": 5703,
      "ĠðŁĺ¡": 5704,
      "iiii": 5705,
      "ĠbestÃ¤t": 5706,
      "Ġbestimmt": 5707,
      "Ġbestanden": 5708,
      "ĠOkay": 5709,
      "Ġwegen": 5710,
      "atiken": 5711,
      "19253788": 5712,
      "Ġroot": 5713,
      "Ġinstal": 5714,
      "ĠSieht": 5715,
      "ĠChef": 5716,
      "ĠChefar": 5717,
      "ĠChebyshev": 5718,
      "ĠSeid": 5719,
      "wendig": 5720,
      "Ġaso": 5721,
      "ĠÃ¤uÃŁer": 5722,
      "Ġprivate": 5723,
      "Ġwildes": 5724,
      "Ġbrennt": 5725,
      "ĠGestern": 5726,
      "24758942": 5727,
      "Ġholen": 5728,
      "Ġ500": 5729,
      "ĠÃ¼brigen": 5730,
      "aschinen": 5731,
      "Ġnoita": 5732,
      "Ġwelch": 5733,
      "ĠWelchen": 5734,
      "Ġkleine": 5735,
      "hstÃ¼ck": 5736,
      "Ġholy": 5737,
      "Ġelement": 5738,
      "ĠBrauche": 5739,
      "ĠHandy": 5740,
      "44358876": 5741,
      "Ġendlich": 5742,
      "Ġmathem": 5743,
      "Ġesse": 5744,
      "ĠAchso": 5745,
      "66046": 5746,
      "14727908": 5747,
      "========": 5748,
      "000000": 5749,
      "danach": 5750,
      "schizophren": 5751,
      "codile": 5752,
      "Ġ\\:(": 5753,
      "ĠBissl": 5754,
      "ĠðŁ¤ļ": 5755,
      "sdowndetector": 5756,
      "parry": 5757,
      "ĠHalbe": 5758,
      "ĠGenau": 5759,
      "ĠbeschÃ¤ftig": 5760,
      "9954620": 5761,
      "tiktok": 5762,
      "Ġachso": 5763,
      "Ġantwort": 5764,
      "witch": 5765,
      "1338980": 5766,
      "ĠÃ¶fter": 5767,
      "Ġaussehen": 5768,
      "Ġpipez": 5769,
      "ĠSonntag": 5770,
      "ĠðŁ¥ļ": 5771,
      "Ġkomische": 5772,
      "ĠFeuerwehr": 5773,
      "Ġballs": 5774,
      "Ġpusher": 5775,
      "Ġfunktioniert": 5776,
      "1405171487": 5777,
      ")=)=": 5778,
      "stickman": 5779,
      "throwing": 5780,
      "Ġassembly": 5781,
      "67440": 5782,
      "ĠâĪĪ": 5783,
      "ĠMÃ¼nchen": 5784,
      "ĠGeschmack": 5785,
      "Ġzweiten": 5786,
      "9719807": 5787,
      "crocodile": 5788,
      "ÌµÌ": 5789,
      "ĠwÃ¼nsche": 5790,
      "Ġcodein": 5791,
      "astatur": 5792,
      "ĠWenigstens": 5793,
      "Ġvulkan": 5794,
      "ĠKaltgetrÃ¤nk": 5795,
      "ĠNÃ¤herung": 5796,
      "ĠÃĦh": 5797,
      "ĠTelekom": 5798,
      "prev": 5799,
      "014653962": 5800,
      "deutschland": 5801,
      "jumpscare": 5802,
      "vittu": 5803,
      "Ġdrown": 5804,
      "Ġnamen": 5805,
      "Ġghidra": 5806,
      "774431": 5807,
      "132114964334": 5808,
      "ĠSegment": 5809,
      "ĠAuftr": 5810,
      "Ġschuften": 5811,
      "Ġsoftware": 5812,
      "Ġlabern": 5813,
      "ĠHardware": 5814,
      "ĠGrammatiken": 5815,
      "Ġerfrischendes": 5816,
      "1407344358876": 5817,
      "98100127754": 5818,
      "981812019274": 5819,
      "Ġgespeichert": 5820,
      "Ġvergessen": 5821,
      "Ġproduktiv": 5822,
      "ĠunterstÃ¼tze": 5823,
      "Ġentschieden": 5824,
      "1755607442071": 5825,
      "1755089388922": 5826,
      "OOLTIP": 5827,
      "80780919253788": 5828,
      "11330018646155": 5829,
      "ĠChefarzt": 5830,
      "ĠÃ¼brigens": 5831,
      "14727908981812019274": 5832,
      "schizophrenia": 5833,
      "1405171487014653962": 5834,
      "971980798100127754": 5835,
      "1321149643349954620": 5836,
      "1407344358876774431": 5837,
      "807809192537882647": 5838,
      "1133001864615567440": 5839,
      "&_": 5840,
      "2167": 5841,
      "372828": 5842,
      "4200": 5843,
      "629": 5844,
      "840": 5845,
      "AB": 5846,
      "AR": 5847,
      "ASS": 5848,
      "CV": 5849,
      "DIR": 5850,
      "En": 5851,
      "Er": 5852,
      "FN": 5853,
      "Gl": 5854,
      "Geht": 5855,
      "HO": 5856,
      "HON": 5857,
      "KY": 5858,
      "KING": 5859,
      "Kroks": 5860,
      "KEN": 5861,
      "LO": 5862,
      "Match": 5863,
      "MPE": 5864,
      "NT": 5865,
      "Nein": 5866,
      "Ok": 5867,
      "Oder": 5868,
      "POR": 5869,
      "PAT": 5870,
      "PASS": 5871,
      "SQ": 5872,
      "SCA": 5873,
      "TF": 5874,
      "TG": 5875,
      "TU": 5876,
      "THON": 5877,
      "UB": 5878,
      "UR": 5879,
      "UDE": 5880,
      "Viel": 5881,
      "Zocken": 5882,
      "ave": 5883,
      "bod": 5884,
      "baut": 5885,
      "cm": 5886,
      "cont": 5887,
      "cess": 5888,
      "count": 5889,
      "dam": 5890,
      "flug": 5891,
      "goo": 5892,
      "gart": 5893,
      "gcl": 5894,
      "his": 5895,
      "huser": 5896,
      "jing": 5897,
      "just": 5898,
      "kle": 5899,
      "li": 5900,
      "lDQ": 5901,
      "mate": 5902,
      "must": 5903,
      "nur": 5904,
      "plu": 5905,
      "pla": 5906,
      "pfen": 5907,
      "pma": 5908,
      "pills": 5909,
      "pakistan": 5910,
      "ran": 5911,
      "ratio": 5912,
      "sb": 5913,
      "sent": 5914,
      "sip": 5915,
      "squ": 5916,
      "slow": 5917,
      "ting": 5918,
      "temp": 5919,
      "uhl": 5920,
      "uze": 5921,
      "wA": 5922,
      "wird": 5923,
      "zinn": 5924,
      "zentrale": 5925,
      "Ġ00": 5926,
      "ered": 5927,
      "chernobyl": 5928,
      "env": 5929,
      "enbahn": 5930,
      "Ġtage": 5931,
      "Ġtore": 5932,
      "Ġautom": 5933,
      "Ġahhhh": 5934,
      "isenbahn": 5935,
      "rooned": 5936,
      "rocm": 5937,
      "Ġemp": 5938,
      "Ġwicht": 5939,
      "ĠwÃ¼sste": 5940,
      "anyl": 5941,
      "Ġbums": 5942,
      "alth": 5943,
      "ourt": 5944,
      "ndered": 5945,
      "annn": 5946,
      "adow": 5947,
      "lox": 5948,
      "ĠDate": 5949,
      "ĠDale": 5950,
      "ĠDaten": 5951,
      "urger": 5952,
      "Ġpunkte": 5953,
      "Ġhauen": 5954,
      "Ġinklusion": 5955,
      "Ġbein": 5956,
      "Ġbehal": 5957,
      "stone": 5958,
      "stalk": 5959,
      "standen": 5960,
      "idk": 5961,
      "idot": 5962,
      "Ġstangen": 5963,
      "omet": 5964,
      "4652": 5965,
      "46770": 5966,
      "4604": 5967,
      "8732": 5968,
      "879117": 5969,
      "item": 5970,
      "utet": 5971,
      "7119": 5972,
      "1327": 5973,
      "1389": 5974,
      "13127": 5975,
      "usche": 5976,
      "Ġkre": 5977,
      "Ġkeh": 5978,
      "Ġkennt": 5979,
      "40006": 5980,
      "2890": 5981,
      "ĠAug": 5982,
      "unsee": 5983,
      "ĠWaden": 5984,
      "ichtung": 5985,
      "ental": 5986,
      "ochi": 5987,
      "Ġschne": 5988,
      "ĠschÃ¤tze": 5989,
      "0869": 5990,
      "19283": 5991,
      "1220": 5992,
      "Ġsoso": 5993,
      "Ġjungen": 5994,
      "4357": 5995,
      "9499": 5996,
      "94835": 5997,
      "ĠKne": 5998,
      "ĠKatze": 5999,
      "eiz": 6000,
      "ĠHau": 6001,
      "ierig": 6002,
      "death": 6003,
      "204": 6004,
      "2023": 6005,
      "ĠTagen": 6006,
      "ĠEmp": 6007,
      "ĠEaster": 6008,
      "1822": 6009,
      "7840": 6010,
      "eitig": 6011,
      "Ġreal": 6012,
      "Ġreiten": 6013,
      "ĠPraktikum": 6014,
      "5526": 6015,
      "ssible": 6016,
      "sshuser": 6017,
      "9586": 6018,
      "95840": 6019,
      "300000": 6020,
      "30000": 6021,
      "Ġmeinung": 6022,
      "9889": 6023,
      "ĠObs": 6024,
      "14112": 6025,
      "ĠStuhl": 6026,
      "Ġabflug": 6027,
      "1127": 6028,
      "5611": 6029,
      "47372828": 6030,
      "475611": 6031,
      "Ġumschreib": 6032,
      "073": 6033,
      "5702": 6034,
      "Ġranz": 6035,
      "Ġnachdem": 6036,
      "anzen": 6037,
      "219629": 6038,
      "44182": 6039,
      "ĠKoma": 6040,
      "uli": 6041,
      "ulen": 6042,
      "ulations": 6043,
      "ainer": 6044,
      "TEMPE": 6045,
      "273": 6046,
      "actually": 6047,
      "159499": 6048,
      "bob": 6049,
      "boten": 6050,
      "slation": 6051,
      "CAL": 6052,
      "Ġgeschickt": 6053,
      "Ġ:(": 6054,
      "Ġheroin": 6055,
      "86159499": 6056,
      "RATU": 6057,
      "Ġfett": 6058,
      "Ġdurchlesen": 6059,
      "TRANS": 6060,
      "marooned": 6061,
      "ĠDawson": 6062,
      "sesame": 6063,
      "Ġangefra": 6064,
      "Ġangeboten": 6065,
      "Ġshader": 6066,
      "64147": 6067,
      "werk": 6068,
      "LLBA": 6069,
      "Ġpingen": 6070,
      "stellzentrale": 6071,
      "Ġgeladen": 6072,
      "conc": 6073,
      "4501389": 6074,
      "wikidot": 6075,
      "FALLBA": 6076,
      "844604": 6077,
      "iii": 6078,
      "lÃ¤gt": 6079,
      "Ġfreund": 6080,
      "ĠfÃ¼hlen": 6081,
      "CHAN": 6082,
      "washing": 6083,
      "Ġproblematische": 6084,
      "swsw": 6085,
      "Ġorgan": 6086,
      "20040006": 6087,
      "abelle": 6088,
      "therf": 6089,
      "24746770": 6090,
      "Ġschwing": 6091,
      "NEL": 6092,
      "NECTI": 6093,
      "belichtet": 6094,
      "Ġaufgestanden": 6095,
      "Ġprofit": 6096,
      "SSFN": 6097,
      "ENAB": 6098,
      "USE": 6099,
      "USERN": 6100,
      "ĠheiÃŁe": 6101,
      "Ġfindet": 6102,
      "scurvy": 6103,
      "Ġkonnte": 6104,
      "bitches": 6105,
      "ĠChance": 6106,
      "ĠComput": 6107,
      "3064": 6108,
      "10334200": 6109,
      "ĠBlut": 6110,
      "Ġaddi": 6111,
      "CLUDE": 6112,
      "ĠModus": 6113,
      "ĠElektron": 6114,
      "2381626": 6115,
      "3967848": 6116,
      "ĠWebGl": 6117,
      "Ġrunterl": 6118,
      "wooting": 6119,
      "lynome": 6120,
      "rrrrrr": 6121,
      "EXCLUDE": 6122,
      "TYPE": 6123,
      "WORD": 6124,
      "WORKING": 6125,
      "ĠWochenende": 6126,
      "118686159499": 6127,
      "ĠKreuze": 6128,
      "14074519283": 6129,
      "AME": 6130,
      "goochi": 6131,
      "=\"$": 6132,
      "CONNECTI": 6133,
      "IDS": 6134,
      "RISCV": 6135,
      "TOKEN": 6136,
      "fentanyl": 6137,
      "medium": 6138,
      "roblox": 6139,
      "PYTHON": 6140,
      "handel": 6141,
      "jiggy": 6142,
      "Ġeuro": 6143,
      "street": 6144,
      "Ġficker": 6145,
      "Ġeineinhalb": 6146,
      "58871822": 6147,
      "14237119": 6148,
      "Ġverabredet": 6149,
      "Ġkokshandel": 6150,
      "ĠÃ¼belst": 6151,
      "spongebob": 6152,
      "21674357": 6153,
      "HOST": 6154,
      "LOCAL": 6155,
      "Matching": 6156,
      "PORT": 6157,
      "PATH": 6158,
      "PASSWORD": 6159,
      "SCAN": 6160,
      "gclid": 6161,
      "plundered": 6162,
      "pmax": 6163,
      "squid": 6164,
      "slownet": 6165,
      "zinnia": 6166,
      "Ġbehalten": 6167,
      "stalker": 6168,
      "ometimes": 6169,
      "87911721": 6170,
      "1312758871822": 6171,
      "Ġkehle": 6172,
      "Ġschneid": 6173,
      "08694501389": 6174,
      "122095840": 6175,
      "9483544182": 6176,
      "ĠKnecht": 6177,
      "20231127": 6178,
      "958674": 6179,
      "1411250": 6180,
      "4756115526": 6181,
      "57029483544182": 6182,
      "21962913": 6183,
      "TEMPERATU": 6184,
      "TRANSFER": 6185,
      "Ġangefragt": 6186,
      "FALLBACK": 6187,
      "CHANNEL": 6188,
      "ENABLED": 6189,
      "USERNAME": 6190,
      "1033420008694501389": 6191,
      "ĠElektronik": 6192,
      "2381626844604": 6193,
      "396784864147": 6194,
      "1186861594991411250": 6195,
      "1407451928387911721": 6196,
      "CONNECTION": 6197,
      "TOKENS": 6198,
      "21674357977": 6199,
      "1312758871822958674": 6200,
      "1220958404756115526": 6201,
      "570294835441827840": 6202,
      "TEMPERATURE": 6203,
      "()": 6204,
      ")**": 6205,
      "026": 6206,
      "094": 6207,
      "056": 6208,
      "042": 6209,
      "151": 6210,
      "1140": 6211,
      "1523": 6212,
      "1762": 6213,
      "271": 6214,
      "208": 6215,
      "217": 6216,
      "296": 6217,
      "2182": 6218,
      "2188": 6219,
      "24352": 6220,
      "2125": 6221,
      "21410": 6222,
      "363": 6223,
      "376": 6224,
      "399": 6225,
      "478": 6226,
      "530": 6227,
      "598": 6228,
      "51363": 6229,
      "52850": 6230,
      "638": 6231,
      "691": 6232,
      "692": 6233,
      "6722": 6234,
      "69966": 6235,
      "68713": 6236,
      "723": 6237,
      "753": 6238,
      "7004": 6239,
      "74352": 6240,
      "838": 6241,
      "806": 6242,
      "895": 6243,
      "822": 6244,
      "856": 6245,
      "993": 6246,
      "923": 6247,
      "914": 6248,
      "99488": 6249,
      "92643": 6250,
      "?ðŁĺĤ": 6251,
      "AP": 6252,
      "Av": 6253,
      "ATA": 6254,
      "ATAT": 6255,
      "ACCGAA": 6256,
      "Bis": 6257,
      "CQ": 6258,
      "Cj": 6259,
      "CGA": 6260,
      "CGAA": 6261,
      "DTA": 6262,
      "EA": 6263,
      "EBA": 6264,
      "Fp": 6265,
      "Fla": 6266,
      "FoC": 6267,
      "Gh": 6268,
      "GGCC": 6269,
      "Grad": 6270,
      "IG": 6271,
      "IO": 6272,
      "If": 6273,
      "IAN": 6274,
      "JD": 6275,
      "Jel": 6276,
      "Ks": 6277,
      "MG": 6278,
      "Nd": 6279,
      "Open": 6280,
      "Pf": 6281,
      "Pre": 6282,
      "PFoC": 6283,
      "RW": 6284,
      "RJel": 6285,
      "SA": 6286,
      "SM": 6287,
      "Sec": 6288,
      "Screenshot": 6289,
      "The": 6290,
      "TTAT": 6291,
      "TCGAA": 6292,
      "UH": 6293,
      "Up": 6294,
      "VE": 6295,
      "WE": 6296,
      "Wo": 6297,
      "Wp": 6298,
      "Zs": 6299,
      "_-_": 6300,
      "aly": 6301,
      "abe": 6302,
      "auss": 6303,
      "aCat": 6304,
      "bi": 6305,
      "bem": 6306,
      "bra": 6307,
      "back": 6308,
      "bild": 6309,
      "cb": 6310,
      "cs": 6311,
      "cu": 6312,
      "ces": 6313,
      "cist": 6314,
      "case": 6315,
      "camera": 6316,
      "da": 6317,
      "dent": 6318,
      "dip": 6319,
      "eats": 6320,
      "fx": 6321,
      "fon": 6322,
      "fel": 6323,
      "fus": 6324,
      "fig": 6325,
      "find": 6326,
      "five": 6327,
      "gh": 6328,
      "gor": 6329,
      "ging": 6330,
      "ground": 6331,
      "ghing": 6332,
      "hc": 6333,
      "hes": 6334,
      "halt": 6335,
      "hell": 6336,
      "hug": 6337,
      "hma": 6338,
      "hilfe": 6339,
      "hFp": 6340,
      "iks": 6341,
      "jb": 6342,
      "jan": 6343,
      "jang": 6344,
      "kg": 6345,
      "kten": 6346,
      "krank": 6347,
      "keln": 6348,
      "kasse": 6349,
      "kRJel": 6350,
      "ltra": 6351,
      "lfte": 6352,
      "mie": 6353,
      "mind": 6354,
      "miss": 6355,
      "missen": 6356,
      "master": 6357,
      "mstag": 6358,
      "mbra": 6359,
      "nung": 6360,
      "nxs": 6361,
      "oct": 6362,
      "oben": 6363,
      "oint": 6364,
      "rd": 6365,
      "rw": 6366,
      "sv": 6367,
      "sz": 6368,
      "sein": 6369,
      "ske": 6370,
      "slos": 6371,
      "sehen": 6372,
      "sist": 6373,
      "sere": 6374,
      "swer": 6375,
      "snow": 6376,
      "some": 6377,
      "sschlaf": 6378,
      "tz": 6379,
      "tung": 6380,
      "talk": 6381,
      "tooth": 6382,
      "ufe": 6383,
      "vo": 6384,
      "walt": 6385,
      "wacht": 6386,
      "wait": 6387,
      "yde": 6388,
      "yld": 6389,
      "zoom": 6390,
      "zogen": 6391,
      "zSD": 6392,
      "ÃĦ": 6393,
      "âĥ": 6394,
      "Ġ;": 6395,
      "Ġlord": 6396,
      "Ġ140": 6397,
      "Ġ...": 6398,
      "Ġ36": 6399,
      "Ġrot": 6400,
      "ĠÃ¤ndern": 6401,
      "erien": 6402,
      "erichtet": 6403,
      "onoun": 6404,
      "onacc": 6405,
      "chan": 6406,
      "chst": 6407,
      "chug": 6408,
      "chÃ©": 6409,
      "chfus": 6410,
      "inion": 6411,
      "inten": 6412,
      "inval": 6413,
      "ased": 6414,
      "oral": 6415,
      "enz": 6416,
      "enst": 6417,
      "Ġsas": 6418,
      "Ġsum": 6419,
      "Ġsitz": 6420,
      "Ġsource": 6421,
      "Ġsorten": 6422,
      "Ġsimp": 6423,
      "Ġtype": 6424,
      "Ġtimes": 6425,
      "Ġteilen": 6426,
      "Ġtreffen": 6427,
      "atschen": 6428,
      "atiks": 6429,
      "Ġaccount": 6430,
      "ising": 6431,
      "isiert": 6432,
      "isolon": 6433,
      "Ġmut": 6434,
      "Ġmoch": 6435,
      "Ġmum": 6436,
      "Ġmute": 6437,
      "Ġmust": 6438,
      "Ġmaster": 6439,
      "Ġmontag": 6440,
      "Ġhur": 6441,
      "Ġhib": 6442,
      "Ġhoff": 6443,
      "ĠhÃ¤ngt": 6444,
      "Ġhorse": 6445,
      "Ġdou": 6446,
      "Ġdad": 6447,
      "Ġdiv": 6448,
      "Ġdist": 6449,
      "Ġdaten": 6450,
      "Ġdeger": 6451,
      "ĠdÃ¼nn": 6452,
      "Ġoper": 6453,
      "rogen": 6454,
      "Ġebend": 6455,
      "Ġetw": 6456,
      "Ġedition": 6457,
      "ĠnÃ¼": 6458,
      "Ġname": 6459,
      "Ġnoc": 6460,
      "Ġww": 6461,
      "ĠwÃ¶": 6462,
      "Ġwider": 6463,
      "Ġwhat": 6464,
      "Ġworden": 6465,
      "anit": 6466,
      "zone": 6467,
      "ingen": 6468,
      "eminararbeit": 6469,
      "ichan": 6470,
      "Ġbar": 6471,
      "Ġbaut": 6472,
      "alid": 6473,
      "alled": 6474,
      "outen": 6475,
      "Ġco": 6476,
      "Ġcre": 6477,
      "Ġcur": 6478,
      "Ġclass": 6479,
      "Ġcryp": 6480,
      "Ġcsv": 6481,
      "ionmaster": 6482,
      "knab": 6483,
      "ikkar": 6484,
      "ieh": 6485,
      "ieben": 6486,
      "ieÃŁen": 6487,
      "nde": 6488,
      "lei": 6489,
      "lehrer": 6490,
      "recken": 6491,
      "resist": 6492,
      "ĠgÃ¶nn": 6493,
      "Ġgirl": 6494,
      "Ġgates": 6495,
      "Ġgames": 6496,
      "Ġgift": 6497,
      "Ġgifs": 6498,
      "adset": 6499,
      "lost": 6500,
      "elnd": 6501,
      "ĠDir": 6502,
      "ĠDef": 6503,
      "ĠDFAs": 6504,
      "ĠDiagnose": 6505,
      "ĠDrogen": 6506,
      "berg": 6507,
      "apping": 6508,
      "appoint": 6509,
      "kogear": 6510,
      "urg": 6511,
      "urm": 6512,
      "uring": 6513,
      "urge": 6514,
      "Ġport": 6515,
      "Ġpause": 6516,
      "Ġpfer": 6517,
      "Ġpacken": 6518,
      "Ġpump": 6519,
      "Ġpanzer": 6520,
      "llig": 6521,
      "Ġint": 6522,
      "Ġbet": 6523,
      "Ġbewegen": 6524,
      "ĠMe": 6525,
      "ĠMy": 6526,
      "ĠMine": 6527,
      "ĠMax": 6528,
      "ĠMagen": 6529,
      "ĠMedikament": 6530,
      "ttings": 6531,
      "stunde": 6532,
      "sthma": 6533,
      "achol": 6534,
      "than": 6535,
      "Ġstation": 6536,
      "Ġstate": 6537,
      "Ġstress": 6538,
      "Ġstinken": 6539,
      "Ġstraight": 6540,
      "fest": 6541,
      "fess": 6542,
      "ues": 6543,
      "uetooth": 6544,
      "Ġsafe": 6545,
      "Ġsayin": 6546,
      "Ġsamstag": 6547,
      "hof": 6548,
      "hoven": 6549,
      "4691": 6550,
      "46583": 6551,
      "ontan": 6552,
      "Ġknight": 6553,
      "Ġknopf": 6554,
      "7775": 6555,
      "77566": 6556,
      "Ġperform": 6557,
      "Ġperson": 6558,
      "8726": 6559,
      "871033": 6560,
      "8799488": 6561,
      "itive": 6562,
      "7186": 6563,
      "71753": 6564,
      "1326": 6565,
      "1343": 6566,
      "1318": 6567,
      "1325": 6568,
      "1309": 6569,
      "13653": 6570,
      "13919": 6571,
      "Ġuse": 6572,
      "Ġultra": 6573,
      "usfahr": 6574,
      "arf": 6575,
      "arn": 6576,
      "arlat": 6577,
      "ets": 6578,
      "etachol": 6579,
      "Ġklausur": 6580,
      "Ġkusch": 6581,
      "Ġkilled": 6582,
      "Ġkratz": 6583,
      "irche": 6584,
      "ĠSatz": 6585,
      "ĠSEBA": 6586,
      "ĠSeminararbeit": 6587,
      "3839": 6588,
      "38656": 6589,
      "3887952": 6590,
      "ehm": 6591,
      "ehn": 6592,
      "esus": 6593,
      "tend": 6594,
      "4090": 6595,
      "4003": 6596,
      "Ġfit": 6597,
      "Ġfern": 6598,
      "Ġfine": 6599,
      "Ġflug": 6600,
      "ĠfÃ¤ngt": 6601,
      "Ġfinal": 6602,
      "Ġfence": 6603,
      "284": 6604,
      "28485": 6605,
      "ĠAcc": 6606,
      "ĠAfter": 6607,
      "ĠAdel": 6608,
      "ĠASM": 6609,
      "ĠAsthma": 6610,
      "Ġaud": 6611,
      "Ġaust": 6612,
      "Ġaugen": 6613,
      "6666": 6614,
      "661219": 6615,
      "Ã¤ck": 6616,
      "Ã¤llig": 6617,
      "456": 6618,
      "4508": 6619,
      "4580": 6620,
      "enta": 6621,
      "entat": 6622,
      "entner": 6623,
      "mmm": 6624,
      "902971": 6625,
      "Ġdavor": 6626,
      "Ġdawson": 6627,
      "Ġzam": 6628,
      "Ġzna": 6629,
      "viel": 6630,
      "Ġeinige": 6631,
      "Ġeinnehmen": 6632,
      "5100": 6633,
      "51650": 6634,
      "517775": 6635,
      "derbem": 6636,
      "2616": 6637,
      "rau": 6638,
      "ragen": 6639,
      "racist": 6640,
      "Ġscho": 6641,
      "Ġschule": 6642,
      "Ġscharlat": 6643,
      "0802": 6644,
      "lub": 6645,
      "5075": 6646,
      "50656": 6647,
      "ĠBol": 6648,
      "ĠBere": 6649,
      "ĠBaum": 6650,
      "1978": 6651,
      "1988": 6652,
      "194580": 6653,
      "1266": 6654,
      "1294": 6655,
      "12090": 6656,
      "1200": 6657,
      "1292": 6658,
      "12167": 6659,
      "125742": 6660,
      "12485": 6661,
      "12418": 6662,
      "gew": 6663,
      "gex": 6664,
      "Ġjung": 6665,
      "Ġjns": 6666,
      "Ġvu": 6667,
      "4390": 6668,
      "4307": 6669,
      "434508": 6670,
      "edanken": 6671,
      "1010": 6672,
      "1018": 6673,
      "101259": 6674,
      "ĠlÃ¶": 6675,
      "Ġlag": 6676,
      "Ġlungen": 6677,
      "Ġlauf": 6678,
      "Ġlvl": 6679,
      "947": 6680,
      "9422": 6681,
      "aul": 6682,
      "aufn": 6683,
      "auze": 6684,
      "ĠKH": 6685,
      "ĠKI": 6686,
      "ĠKa": 6687,
      "ĠKind": 6688,
      "ĠKaf": 6689,
      "ĠKabel": 6690,
      "ĠKakao": 6691,
      "ĠKanonen": 6692,
      "eiv": 6693,
      "Ã¶hnung": 6694,
      "Ã¶tter": 6695,
      "Ã¶hnt": 6696,
      "schlag": 6697,
      "ĠHaa": 6698,
      "ĠHeim": 6699,
      "ĠHob": 6700,
      "ĠHause": 6701,
      "ĠHetzner": 6702,
      "ĠHyde": 6703,
      "ĠNature": 6704,
      "ĠGO": 6705,
      "ĠGU": 6706,
      "ĠGro": 6707,
      "ĠGnom": 6708,
      "ĠGedanken": 6709,
      "ĠGÃ¶tter": 6710,
      "ierbar": 6711,
      "0658": 6712,
      "0649": 6713,
      "063839": 6714,
      "ĠJesus": 6715,
      "7617": 6716,
      "7623": 6717,
      "76086": 6718,
      "525": 6719,
      "52963": 6720,
      "Ġrie": 6721,
      "Ġrate": 6722,
      "Ġrannn": 6723,
      "201": 6724,
      "2098": 6725,
      "2072": 6726,
      "komme": 6727,
      "09002": 6728,
      "ĠTy": 6729,
      "ĠTÃ¼r": 6730,
      "ĠTim": 6731,
      "ĠTUM": 6732,
      "ĠTuring": 6733,
      "tear": 6734,
      "teckt": 6735,
      "tegr": 6736,
      "technik": 6737,
      "ĠEIN": 6738,
      "ĠEcke": 6739,
      "93514": 6740,
      "9346583": 6741,
      "8725": 6742,
      "8721318": 6743,
      "ĠFeh": 6744,
      "ĠFern": 6745,
      "ĠFib": 6746,
      "ĠFile": 6747,
      "183": 6748,
      "18171": 6749,
      "188799488": 6750,
      "Ġgehab": 6751,
      "Ġanges": 6752,
      "Ġanzuf": 6753,
      "Ġanswer": 6754,
      "Ġanknab": 6755,
      "Ġerd": 6756,
      "Ġerle": 6757,
      "Ġerweit": 6758,
      "ĠerschieÃŁ": 6759,
      "78202": 6760,
      "78434508": 6761,
      "Ġaufk": 6762,
      "Ġauftritt": 6763,
      "ĠaufhÃ¶ren": 6764,
      "Ġmitspielen": 6765,
      "Ġrequest": 6766,
      "dnisolon": 6767,
      "ĠRes": 6768,
      "ĠRuss": 6769,
      "ĠRandom": 6770,
      "again": 6771,
      "enne": 6772,
      "ĠLog": 6773,
      "ĠLauf": 6774,
      "ĠPr": 6775,
      "oot": 6776,
      "1694": 6777,
      "1623": 6778,
      "1758": 6779,
      "1757": 6780,
      "17980": 6781,
      "17477": 6782,
      "Ġbissel": 6783,
      "Ġkannste": 6784,
      "sse": 6785,
      "sohn": 6786,
      "Ġspeak": 6787,
      "Ġjaaa": 6788,
      "Ġjahre": 6789,
      "umt": 6790,
      "umpen": 6791,
      "Ġunp": 6792,
      "Ġunges": 6793,
      "Ġunauff": 6794,
      "9547": 6795,
      "9572": 6796,
      "140691": 6797,
      "egor": 6798,
      "egativ": 6799,
      "30973": 6800,
      "30399": 6801,
      "30661219": 6802,
      "Ġmeins": 6803,
      "Ġmeinte": 6804,
      "Ġausgesch": 6805,
      "amd": 6806,
      "amt": 6807,
      "ambus": 6808,
      "oto": 6809,
      "otaCat": 6810,
      "5896": 6811,
      "5832": 6812,
      "5864": 6813,
      "ibst": 6814,
      "iling": 6815,
      "imen": 6816,
      "234": 6817,
      "23612": 6818,
      "2337": 6819,
      "2364": 6820,
      "23067": 6821,
      "2392643": 6822,
      "icul": 6823,
      "icated": 6824,
      "ackt": 6825,
      "9816": 6826,
      "Ġhate": 6827,
      "Ġhatten": 6828,
      "96765": 6829,
      "96914": 6830,
      "962392643": 6831,
      "hafte": 6832,
      "illa": 6833,
      "ĠOsten": 6834,
      "1415": 6835,
      "14145": 6836,
      "14117": 6837,
      "1476086": 6838,
      "22507": 6839,
      "22296": 6840,
      "ĠStoff": 6841,
      "ĠStream": 6842,
      "Ġkeiner": 6843,
      "Ġabout": 6844,
      "ĠabgerÃ¤": 6845,
      "Ġmanife": 6846,
      "Ġmanuell": 6847,
      "ellen": 6848,
      "1124": 6849,
      "aym": 6850,
      "ayp": 6851,
      "ĠVolleyball": 6852,
      "olut": 6853,
      "oliz": 6854,
      "alls": 6855,
      "Ġgesetzt": 6856,
      "opd": 6857,
      "opinion": 6858,
      "567": 6859,
      "5612": 6860,
      "56010": 6861,
      "48276": 6862,
      "48308": 6863,
      "4852963": 6864,
      "Ã¶nge": 6865,
      "933458": 6866,
      "Ġverbr": 6867,
      "Ġverrecken": 6868,
      "Ġwerfen": 6869,
      "Ġsinds": 6870,
      "00121": 6871,
      "ipcon": 6872,
      "iplayer": 6873,
      "ffnung": 6874,
      "072125": 6875,
      "ĠSchluss": 6876,
      "5744": 6877,
      "eilt": 6878,
      "eilig": 6879,
      "Ġminderbem": 6880,
      "3343": 6881,
      "ickelnd": 6882,
      "292094": 6883,
      "8883": 6884,
      "883887952": 6885,
      "Ġdement": 6886,
      "meister": 6887,
      "Ġvorles": 6888,
      "Ġvorlie": 6889,
      "219856": 6890,
      "53733": 6891,
      "53563": 6892,
      "531988": 6893,
      "laas": 6894,
      "eek": 6895,
      "Ġdeins": 6896,
      "eiÃŁt": 6897,
      "ĠAbends": 6898,
      "wege": 6899,
      "421": 6900,
      "4255": 6901,
      "421204": 6902,
      "9159": 6903,
      "91115": 6904,
      "914573": 6905,
      "uls": 6906,
      "ulÃ¶sen": 6907,
      "Ġdrum": 6908,
      "Ġdritte": 6909,
      "Ġdrinne": 6910,
      "ĠdrÃ¶hnung": 6911,
      "denken": 6912,
      "laughing": 6913,
      "3604": 6914,
      "36160": 6915,
      "36838": 6916,
      "Ġprog": 6917,
      "ugu": 6918,
      "Ġspielst": 6919,
      "traction": 6920,
      "trained": 6921,
      "2766": 6922,
      "2730661219": 6923,
      "activation": 6924,
      "5092": 6925,
      "15260": 6926,
      "15133": 6927,
      "ĠÃ¼berm": 6928,
      "ĠÃ¼berlegt": 6929,
      "ĠÃ¼bernommen": 6930,
      "Ġobscur": 6931,
      "akkogear": 6932,
      "CACA": 6933,
      "CAAT": 6934,
      "CACTA": 6935,
      "plus": 6936,
      "plate": 6937,
      "ĠRegen": 6938,
      "ĠReady": 6939,
      "ĠRechnung": 6940,
      "2542": 6941,
      "4769572": 6942,
      "997828": 6943,
      "992072": 6944,
      "TATA": 6945,
      "TACGCC": 6946,
      "TAGCCGAA": 6947,
      "TACACA": 6948,
      "ĠSpiele": 6949,
      "ĠSpeicher": 6950,
      "Ġlangw": 6951,
      "ereicht": 6952,
      "ortison": 6953,
      "zeichen": 6954,
      "ĠgemÃ¼t": 6955,
      "034": 6956,
      "Ġversteckt": 6957,
      "reibe": 6958,
      "Ġgeschoben": 6959,
      "Ġrausgesch": 6960,
      "118721318": 6961,
      "ahme": 6962,
      "CCCC": 6963,
      "CCCTCA": 6964,
      "ruction": 6965,
      "Ġgerafft": 6966,
      "Ġkot": 6967,
      "Ġkosten": 6968,
      "Ġkopf": 6969,
      "Ġdurfte": 6970,
      "86486": 6971,
      "8652850": 6972,
      "867004": 6973,
      "ries": 6974,
      "5418": 6975,
      "ammlung": 6976,
      "Ġfeier": 6977,
      "Ġfehlen": 6978,
      "blic": 6979,
      "minig": 6980,
      "Ġirgendein": 6981,
      "Ġdurchs": 6982,
      "9253": 6983,
      "brand": 6984,
      "Ġexist": 6985,
      "ustus": 6986,
      "047828": 6987,
      "ĠhÃ¤ss": 6988,
      "372098": 6989,
      "Ġirgendwer": 6990,
      "mybeloved": 6991,
      "underwater": 6992,
      "Ġ120": 6993,
      "72426": 6994,
      "0918": 6995,
      "0995": 6996,
      "ĠgefÃ¼hlt": 6997,
      "Ġanders": 6998,
      "Ġanderem": 6999,
      "Ġanderweit": 7000,
      "Ġallein": 7001,
      "GAN": 7002,
      "GAGA": 7003,
      "GATT": 7004,
      "Ġboard": 7005,
      "arely": 7006,
      "Ã¼nft": 7007,
      "ĠAnfall": 7008,
      "Ġlast": 7009,
      "ption": 7010,
      "ĠhÃ¶ch": 7011,
      "ĠhÃ¶he": 7012,
      "Ġzwingend": 7013,
      "ĠwÃ¼rden": 7014,
      "Ġangeguckt": 7015,
      "fax": 7016,
      "Ġshell": 7017,
      "ĠBefund": 7018,
      "Ġsettings": 7019,
      "34268": 7020,
      "341843": 7021,
      "Ġengine": 7022,
      "oooooo": 7023,
      "iefert": 7024,
      "ampicated": 7025,
      "werden": 7026,
      "Ġgeworden": 7027,
      "Ġtrack": 7028,
      "Ġlobot": 7029,
      "Ġlogis": 7030,
      "109182": 7031,
      "1094090": 7032,
      "TTCTTCA": 7033,
      "Ġgelb": 7034,
      "Ġgelaufen": 7035,
      "Ġklem": 7036,
      "14553563": 7037,
      "ĠVermie": 7038,
      "28328485": 7039,
      "trolle": 7040,
      "17168713": 7041,
      "940703": 7042,
      "conchfus": 7043,
      "phonk": 7044,
      "ĠAufgabe": 7045,
      "666260": 7046,
      "666072125": 7047,
      "gesamt": 7048,
      "iums": 7049,
      "Ġoutput": 7050,
      "Ġbestes": 7051,
      "Ġfreitag": 7052,
      "ĠlÃ¤sst": 7053,
      "Ġweird": 7054,
      "ĠfÃ¼hlt": 7055,
      "ĠfÃ¼llen": 7056,
      "1821758": 7057,
      "posting": 7058,
      "059422": 7059,
      "491348": 7060,
      "Ġtrans": 7061,
      "Ġverstanden": 7062,
      "ĠwÃ¤rs": 7063,
      "drink": 7064,
      "esting": 7065,
      "61524": 7066,
      "759158": 7067,
      "gnu": 7068,
      "Ġcomp": 7069,
      "Ġinstruction": 7070,
      "175666": 7071,
      "1757603": 7072,
      "1754769572": 7073,
      "1142652": 7074,
      "1141326": 7075,
      "Ġeingerichtet": 7076,
      "ĠSiege": 7077,
      "ilerplate": 7078,
      "ĠKrankenkasse": 7079,
      "14378434508": 7080,
      "120063839": 7081,
      "20038656": 7082,
      "175563471": 7083,
      "177638": 7084,
      "75017980": 7085,
      "Ġzoggen": 7086,
      "10696914": 7087,
      "uhig": 7088,
      "Ġquer": 7089,
      "Ġquatschen": 7090,
      "Ġquellen": 7091,
      "ĠMojang": 7092,
      "Ġforce": 7093,
      "93677": 7094,
      "CTCCA": 7095,
      "merry": 7096,
      "Ġasm": 7097,
      "Ġasdf": 7098,
      "Ġfrage": 7099,
      "halbloch": 7100,
      "108012": 7101,
      "ĠÃ¤quivalent": 7102,
      "873109182": 7103,
      "ĠApple": 7104,
      "Ġpronoun": 7105,
      "Ġprickelnd": 7106,
      "2023013": 7107,
      "Ġgottlos": 7108,
      "24012485": 7109,
      "STIAN": 7110,
      "mark": 7111,
      "Ġmove": 7112,
      "Ġmops": 7113,
      "Ġzeuch": 7114,
      "trolling": 7115,
      "lager": 7116,
      "queue": 7117,
      "Ġsitzt": 7118,
      "Ġholde": 7119,
      "Ġhollow": 7120,
      "Ġ4092": 7121,
      "NET": 7122,
      "ĠÃ¼bung": 7123,
      "Ġmerge": 7124,
      "Ġmagenta": 7125,
      "Ã¼nden": 7126,
      "Ġrumspielen": 7127,
      "Ġhustenstill": 7128,
      "1461754769572": 7129,
      "Ġkleinen": 7130,
      "ĠAusm": 7131,
      "9198883": 7132,
      "CTAGT": 7133,
      "CTACAAT": 7134,
      "CTATTCTTCA": 7135,
      "clampicated": 7136,
      "Ġeltern": 7137,
      "Ġaufgewacht": 7138,
      "73615133": 7139,
      "GGCTTCA": 7140,
      "GGGGA": 7141,
      "interesting": 7142,
      "14720": 7143,
      "Ġgeneriert": 7144,
      "1196": 7145,
      "Ġfranz": 7146,
      "Ġschaukeln": 7147,
      "ĠNotaufn": 7148,
      "ĠTermine": 7149,
      "ĠMensch": 7150,
      "Ġfinden": 7151,
      "1763108012": 7152,
      "Ġtrainieren": 7153,
      "2767": 7154,
      "Ġsinnlos": 7155,
      "Ġkrieg": 7156,
      "1843106": 7157,
      "Ġverwenden": 7158,
      "81056010": 7159,
      "farbe": 7160,
      "work": 7161,
      "Ġnahen": 7162,
      "ĠDenk": 7163,
      "ĠWetter": 7164,
      "9477566": 7165,
      "ĠKnochen": 7166,
      "14223067": 7167,
      "Ġverkauft": 7168,
      "iertelstunde": 7169,
      "awsome": 7170,
      "frame": 7171,
      "stiller": 7172,
      "1033118721318": 7173,
      "ĠHals": 7174,
      "ĠbeschÃ¤ftigen": 7175,
      "9771018": 7176,
      "9515": 7177,
      "91206": 7178,
      "ACATCGAA": 7179,
      "CCAACCGAA": 7180,
      "CCACTACAAT": 7181,
      "CTTCGA": 7182,
      "danny": 7183,
      "Ġberechnung": 7184,
      "Ġberechnen": 7185,
      "Ġparticul": 7186,
      "Ġusb": 7187,
      "26280918": 7188,
      "ĠBluetooth": 7189,
      "TATCTCCA": 7190,
      "Ġinstallieren": 7191,
      "kippt": 7192,
      "Ġclap": 7193,
      "Ġclick": 7194,
      "Ġkonto": 7195,
      "Ġschreibt": 7196,
      "Ġantworten": 7197,
      "ĠhÃ¶rend": 7198,
      "witzt": 7199,
      "Ġbleibst": 7200,
      "5128531988": 7201,
      "ĠHaha": 7202,
      "ĠFahrschule": 7203,
      "ĠSchreibfehler": 7204,
      "3969808": 7205,
      "Ġtypen": 7206,
      "Ġdienstgrad": 7207,
      "878992072": 7208,
      "ĠWebsite": 7209,
      "ĠBahnhof": 7210,
      "ĠTypeScript": 7211,
      "Ġprojekt": 7212,
      "Ġprojection": 7213,
      "117372098": 7214,
      "945997828": 7215,
      "disappoint": 7216,
      "distraction": 7217,
      "watermark": 7218,
      "Ġbuild": 7219,
      "Ġpflaster": 7220,
      "0601": 7221,
      "76290": 7222,
      "ĠInfo": 7223,
      "17550758": 7224,
      "willig": 7225,
      "ï¸ıâĥ": 7226,
      "Ġmultiplayer": 7227,
      "ĠAutomaten": 7228,
      "Ġschwarze": 7229,
      "58569198883": 7230,
      "5709346583": 7231,
      "Ġentzug": 7232,
      "1186059422": 7233,
      "Ġgaymen": 7234,
      "Ġangeht": 7235,
      "140745873109182": 7236,
      "29573615133": 7237,
      "4715146": 7238,
      "AACATTAT": 7239,
      "AACACCCTCA": 7240,
      "CGCCCTATTCTTCA": 7241,
      "GTCCGAA": 7242,
      "GCAGGCC": 7243,
      "GCAGAGA": 7244,
      "cornball": 7245,
      "oretisch": 7246,
      "oretische": 7247,
      "oudFla": 7248,
      "ĠglÃ¼cklich": 7249,
      "774536": 7250,
      "134730973": 7251,
      "ĠHustenstiller": 7252,
      "devito": 7253,
      "ĠerzÃ¤hlen": 7254,
      "154143": 7255,
      "25991115": 7256,
      "CCTTGCCGAA": 7257,
      "CCTTCGCCCTATTCTTCA": 7258,
      "Ġsequenzen": 7259,
      "Ġsequenzieren": 7260,
      "CTCAGGCTTCA": 7261,
      "22324352": 7262,
      "44009": 7263,
      "91600121": 7264,
      "HamUp": 7265,
      "Learn": 7266,
      "Ġslapt": 7267,
      "Ġdoppelt": 7268,
      "reddit": 7269,
      "Ġpublic": 7270,
      "Ġbegehen": 7271,
      "ĠAttentat": 7272,
      "9070658": 7273,
      "ĠTheoretische": 7274,
      "ittelter": 7275,
      "Ġvorgegeben": 7276,
      "ĠRettungss": 7277,
      "Ġshutdown": 7278,
      "crush": 7279,
      "ĠInformatiker": 7280,
      "141952741476086": 7281,
      "HAW": 7282,
      "QpL": 7283,
      "SpÃ¤ter": 7284,
      "ShootaCat": 7285,
      "Ġtodeslost": 7286,
      "ĠdÃ¼rfen": 7287,
      "allel": 7288,
      "468328": 7289,
      "2829816": 7290,
      "Ġannel": 7291,
      "ĠauszulÃ¶sen": 7292,
      "9867094": 7293,
      "ĠCloudFla": 7294,
      "14388040": 7295,
      "29871": 7296,
      "547853733": 7297,
      "ĠWohnzimmer": 7298,
      "Ġoffiziel": 7299,
      "Ġdefinition": 7300,
      "Ġdomains": 7301,
      "25536160": 7302,
      "24476290": 7303,
      "847319": 7304,
      "gumichan": 7305,
      "Ġagain": 7306,
      "Ġhurensohn": 7307,
      "Ġniemanden": 7308,
      "Ġpulver": 7309,
      "Ġinteger": 7310,
      "Ġbegeistern": 7311,
      "ĠMittagsschlaf": 7312,
      "Ġsamma": 7313,
      "Ġkagge": 7314,
      "ĠSetup": 7315,
      "Ã¼lz": 7316,
      "ĠeinfÃ¼gen": 7317,
      "Ġschmerz": 7318,
      "5071491348": 7319,
      "50765744": 7320,
      "Ġjapan": 7321,
      "ĠvÃ¶gel": 7322,
      "Ã¶ÃŁte": 7323,
      "ĠHintergrund": 7324,
      "depressionmaster": 7325,
      "7613047828": 7326,
      "169010696914": 7327,
      "959017477": 7328,
      "Ġabgeschossen": 7329,
      "ĠVolkhoven": 7330,
      "ĠvernÃ¼nft": 7331,
      "Ġverbessern": 7332,
      "9171774536": 7333,
      "Ġentspannt": 7334,
      "Ġaidsig": 7335,
      "ĠFamilie": 7336,
      "Ġpartialbruchzerlegt": 7337,
      "152351363": 7338,
      "1762878992072": 7339,
      "218293677": 7340,
      "21888726": 7341,
      "21410142": 7342,
      "692188799488": 7343,
      "6722517775": 7344,
      "69966914573": 7345,
      "7239867094": 7346,
      "7435275017980": 7347,
      "8957613047828": 7348,
      "8221461754769572": 7349,
      "92328328485": 7350,
      "APhFp": 7351,
      "ATAAACACCCTCA": 7352,
      "ATATGATT": 7353,
      "DTAG": 7354,
      "PFoCsz": 7355,
      "cube": 7356,
      "figur": 7357,
      "gorithmus": 7358,
      "hugugu": 7359,
      "kRJelzSD": 7360,
      "mbrace": 7361,
      "octopinion": 7362,
      "talking": 7363,
      "onacci": 7364,
      "invalid": 7365,
      "Ġsimpel": 7366,
      "atikstu": 7367,
      "Ġmuster": 7368,
      "Ġdivider": 7369,
      "Ġetwas": 7370,
      "anitÃ¤ter": 7371,
      "Ġcrypto": 7372,
      "ikkarte": 7373,
      "Ġgifted": 7374,
      "ĠDefin": 7375,
      "ĠMinecraft": 7376,
      "fessor": 7377,
      "7756682": 7378,
      "Ġperformance": 7379,
      "8710332829816": 7380,
      "718618171": 7381,
      "7175312090": 7382,
      "13436722517775": 7383,
      "1309666260": 7384,
      "1365390": 7385,
      "139194715146": 7386,
      "Ġusecase": 7387,
      "usfahrer": 7388,
      "etacholin": 7389,
      "Ġkuscheln": 7390,
      "Ġkratzer": 7391,
      "ĠSEBASTIAN": 7392,
      "ĠAdelhol": 7393,
      "902971904": 7394,
      "51005896": 7395,
      "516504307": 7396,
      "506568957613047828": 7397,
      "197886486": 7398,
      "19458097": 7399,
      "12942767": 7400,
      "129250765744": 7401,
      "121675832": 7402,
      "1257428710332829816": 7403,
      "124182730661219": 7404,
      "101259219856": 7405,
      "ĠKaffee": 7406,
      "ĠHaare": 7407,
      "ĠHobbies": 7408,
      "ĠNaturell": 7409,
      "06491200": 7410,
      "761787": 7411,
      "76239070658": 7412,
      "ĠFernsehen": 7413,
      "ĠFibonacci": 7414,
      "Ġgehabt": 7415,
      "Ġanzufangen": 7416,
      "Ġanknabbern": 7417,
      "7820276239070658": 7418,
      "162336838": 7419,
      "Ġungesund": 7420,
      "ĠunauffÃ¤llig": 7421,
      "954758": 7422,
      "140691567": 7423,
      "3039922296": 7424,
      "236125709346583": 7425,
      "962392643197886486": 7426,
      "14157175312090": 7427,
      "14145162336838": 7428,
      "1411794": 7429,
      "2250709002": 7430,
      "ĠabgerÃ¤umt": 7431,
      "olizei": 7432,
      "4827691600121": 7433,
      "48529639636": 7434,
      "ipconnect": 7435,
      "Ġminderbemittelter": 7436,
      "29209493514": 7437,
      "88388795251005896": 7438,
      "42120416": 7439,
      "360498": 7440,
      "152605071491348": 7441,
      "CACTAGCAGAGA": 7442,
      "TATAATAAACACCCTCA": 7443,
      "TACGCCGCAGGCC": 7444,
      "TAGCCGAATACACA": 7445,
      "Ġrausgeschwitzt": 7446,
      "CCCCCTTCGA": 7447,
      "724265418": 7448,
      "Ġanderweitig": 7449,
      "34268954758": 7450,
      "341843468328": 7451,
      "Ġlobotom": 7452,
      "Ġlogisim": 7453,
      "1094090341843468328": 7454,
      "1455356329209493514": 7455,
      "ĠVermieter": 7456,
      "trolled": 7457,
      "1716871329871": 7458,
      "940703945997828": 7459,
      "conchfusing": 7460,
      "18217581716871329871": 7461,
      "7591584827691600121": 7462,
      "1757603761787": 7463,
      "1142652547853733": 7464,
      "1141326152351363": 7465,
      "1437843450820038656": 7466,
      "120063839959017477": 7467,
      "1755634710601": 7468,
      "1776385": 7469,
      "20230131": 7470,
      "Ġhustenstillend": 7471,
      "CTAGTCTCAGGCTTCA": 7472,
      "GGGGAGTCCGAA": 7473,
      "ĠNotaufnahme": 7474,
      "1763108012872": 7475,
      "810560102250709002": 7476,
      "9477566474": 7477,
      "1422306748529639636": 7478,
      "1033118721318867004": 7479,
      "ACATCGAATACGCCGCAGGCC": 7480,
      "CCAACCGAACCCCCTTCGA": 7481,
      "CCACTACAATCT": 7482,
      "Ġparticular": 7483,
      "TATCTCCACACTAGCAGAGA": 7484,
      "5128531988218293677": 7485,
      "396980818": 7486,
      "1173720983039922296": 7487,
      "disappointment": 7488,
      "Ġpflasterlaster": 7489,
      "ï¸ıâĥ£": 7490,
      "5856919888306491200": 7491,
      "1186059422666072125": 7492,
      "1407458731091824691": 7493,
      "29573615133933458": 7494,
      "AACATTATTATAATAAACACCCTCA": 7495,
      "1347309739171774536": 7496,
      "CCTTGCCGAAGGGGAGTCCGAA": 7497,
      "CCTTCGCCCTATTCTTCATAGCCGAATACACA": 7498,
      "2232435229573615133933458": 7499,
      "ĠRettungssanitÃ¤ter": 7500,
      "1419527414760865882": 7501,
      "ĠCloudFlare": 7502,
      "1438804034268954758": 7503,
      "depressionmastermybeloved": 7504,
      "1690106969141776385": 7505,
      "692188799488360498": 7506,
      "699669145737756682": 7507,
      "7239867094724265418": 7508,
      "7435275017980164": 7509,
      "822146175476957214": 7510,
      "9232832848542120416": 7511,
      "ATATGATTTATCTCCACACTAGCAGAGA": 7512,
      "PFoCszkRJelzSD": 7513,
      "718618171396980818": 7514,
      "1343672251777548308": 7515,
      "1309666260140691567": 7516,
      "1391947151461843106": 7517,
      "516504307902971904": 7518,
      "1292507657449771018": 7519,
      "1216758329477566474": 7520,
      "1241827306612199515": 7521,
      "1012592198568652850": 7522,
      "782027623907065897": 7523,
      "2361257093465839159": 7524,
      "1415717531209044009": 7525,
      "1414516233683861524": 7526,
      "8838879525100589615": 7527,
      "15260507149134896765": 7528,
      "940703945997828116": 7529,
      "1142652547853733918": 7530,
      "1141326152351363133": 7531,
      "1200638399590174772": 7532,
      "CTAGTCTCAGGCTTCAACATCGAATACGCCGCAGGCC": 7533,
      "CCAACCGAACCCCCTTCGACCTTGCCGAAGGGGAGTCCGAA": 7534,
      "AACATTATTATAATAAACACCCTCACCACTACAATCT": 7535,
      "CCTTCGCCCTATTCTTCATAGCCGAATACACAAACATTATTATAATAAACACCCTCACCACTACAATCT": 7536,
      "ATATGATTTATCTCCACACTAGCAGAGACCAACCGAACCCCCTTCGACCTTGCCGAAGGGGAGTCCGAA": 7537,
      "CTAGTCTCAGGCTTCAACATCGAATACGCCGCAGGCCCCTTCGCCCTATTCTTCATAGCCGAATACACAAACATTATTATAATAAACACCCTCACCACTACAATCT": 7538,
      "ATATGATTTATCTCCACACTAGCAGAGACCAACCGAACCCCCTTCGACCTTGCCGAAGGGGAGTCCGAACTAGTCTCAGGCTTCAACATCGAATACGCCGCAGGCCCCTTCGCCCTATTCTTCATAGCCGAATACACAAACATTATTATAATAAACACCCTCACCACTACAATCT": 7539,
      "!?": 7540,
      ")(": 7541,
      ")/": 7542,
      "-%": 7543,
      "--": 7544,
      "/%": 7545,
      "043": 7546,
      "022": 7547,
      "048": 7548,
      "0133": 7549,
      "176": 7550,
      "246": 7551,
      "290": 7552,
      "206": 7553,
      "230": 7554,
      "2127": 7555,
      "2477": 7556,
      "2788": 7557,
      "387": 7558,
      "31275": 7559,
      "412": 7560,
      "447": 7561,
      "571": 7562,
      "550": 7563,
      "552": 7564,
      "626": 7565,
      "676": 7566,
      "603": 7567,
      "685": 7568,
      "813": 7569,
      "825": 7570,
      "8166": 7571,
      "990": 7572,
      "AE": 7573,
      "Ab": 7574,
      "Auf": 7575,
      "BD": 7576,
      "BF": 7577,
      "Cf": 7578,
      "Cle": 7579,
      "Cosinus": 7580,
      "DC": 7581,
      "DJ": 7582,
      "Dann": 7583,
      "DFA": 7584,
      "Dance": 7585,
      "Ein": 7586,
      "EIN": 7587,
      "Egal": 7588,
      "Fl": 7589,
      "Gut": 7590,
      "Ganz": 7591,
      "Gute": 7592,
      "IC": 7593,
      "IE": 7594,
      "Mz": 7595,
      "ODB": 7596,
      "Re": 7597,
      "Rl": 7598,
      "TX": 7599,
      "Tschebyschow": 7600,
      "Tangens": 7601,
      "TOOLTIP": 7602,
      "Um": 7603,
      "Update": 7604,
      "Wel": 7605,
      "War": 7606,
      "Wird": 7607,
      "ZT": 7608,
      "Zo": 7609,
      "ZNd": 7610,
      "].": 7611,
      "]:": 7612,
      "^(": 7613,
      "ae": 7614,
      "aer": 7615,
      "ban": 7616,
      "bing": 7617,
      "bein": 7618,
      "bell": 7619,
      "bank": 7620,
      "blow": 7621,
      "bait": 7622,
      "brain": 7623,
      "bruh": 7624,
      "cf": 7625,
      "cel": 7626,
      "call": 7627,
      "cert": 7628,
      "cos": 7629,
      "cans": 7630,
      "coeffs": 7631,
      "din": 7632,
      "dunge": 7633,
      "diag": 7634,
      "downdetector": 7635,
      "eac": 7636,
      "fre": 7637,
      "fern": 7638,
      "faster": 7639,
      "feld": 7640,
      "gf": 7641,
      "gs": 7642,
      "gelt": 7643,
      "geln": 7644,
      "gons": 7645,
      "good": 7646,
      "gumen": 7647,
      "hq": 7648,
      "hly": 7649,
      "har": 7650,
      "hick": 7651,
      "iam": 7652,
      "iab": 7653,
      "izz": 7654,
      "iale": 7655,
      "iNW": 7656,
      "jim": 7657,
      "jemand": 7658,
      "jto": 7659,
      "kr": 7660,
      "kab": 7661,
      "kehr": 7662,
      "kick": 7663,
      "kaufen": 7664,
      "lem": 7665,
      "lation": 7666,
      "lab": 7667,
      "litt": 7668,
      "link": 7669,
      "mh": 7670,
      "mund": 7671,
      "misch": 7672,
      "mehr": 7673,
      "main": 7674,
      "mess": 7675,
      "mrow": 7676,
      "miam": 7677,
      "ng": 7678,
      "nam": 7679,
      "nvm": 7680,
      "nold": 7681,
      "nosis": 7682,
      "oss": 7683,
      "ohnt": 7684,
      "plo": 7685,
      "prÃ¼": 7686,
      "pite": 7687,
      "rc": 7688,
      "ri": 7689,
      "rn": 7690,
      "rap": 7691,
      "risc": 7692,
      "rib": 7693,
      "rick": 7694,
      "ritten": 7695,
      "sal": 7696,
      "sÃ¶n": 7697,
      "sbar": 7698,
      "sichtlich": 7699,
      "tel": 7700,
      "tml": 7701,
      "uzen": 7702,
      "udd": 7703,
      "vement": 7704,
      "wl": 7705,
      "ws": 7706,
      "wur": 7707,
      "wont": 7708,
      "wes": 7709,
      "woch": 7710,
      "wind": 7711,
      "wenn": 7712,
      "wort": 7713,
      "wÃ¤r": 7714,
      "wasser": 7715,
      "xis": 7716,
      "yn": 7717,
      "ylo": 7718,
      "zÃ¶": 7719,
      "zOnly": 7720,
      "zweif": 7721,
      "´Ì": 7722,
      "½Ì": 7723,
      "Ì·": 7724,
      "ÌĪ": 7725,
      "Ìī": 7726,
      "Ì´Ì": 7727,
      "ÍĦ": 7728,
      "ÍĨ": 7729,
      "âĻ": 7730,
      "Ġq": 7731,
      "Ġvery": 7732,
      "Ġone": 7733,
      "ĠCont": 7734,
      "Ġ48": 7735,
      "Ġ192": 7736,
      "Ġlordkroks": 7737,
      "ĩª": 7738,
      "įâĻ": 7739,
      "err": 7740,
      "ering": 7741,
      "erik": 7742,
      "chat": 7743,
      "chter": 7744,
      "chnet": 7745,
      "chheit": 7746,
      "inkst": 7747,
      "instag": 7748,
      "asen": 7749,
      "aschen": 7750,
      "orb": 7751,
      "ors": 7752,
      "ores": 7753,
      "enf": 7754,
      "enor": 7755,
      "enster": 7756,
      "engung": 7757,
      "Ġsw": 7758,
      "Ġsing": 7759,
      "Ġsus": 7760,
      "Ġseb": 7761,
      "Ġsale": 7762,
      "Ġssh": 7763,
      "Ġscript": 7764,
      "Ġsyn": 7765,
      "Ġsenf": 7766,
      "verfol": 7767,
      "vermind": 7768,
      "Ġtf": 7769,
      "Ġtum": 7770,
      "Ġteil": 7771,
      "Ġtnt": 7772,
      "Ġtable": 7773,
      "Ġturn": 7774,
      "Ġtanken": 7775,
      "ato": 7776,
      "atit": 7777,
      "Ġakt": 7778,
      "Ġahhh": 7779,
      "Ġafter": 7780,
      "Ġaye": 7781,
      "Ġaverage": 7782,
      "ism": 7783,
      "isse": 7784,
      "isper": 7785,
      "isible": 7786,
      "isual": 7787,
      "Ġthen": 7788,
      "Ġthre": 7789,
      "Ġthere": 7790,
      "ordin": 7791,
      "Ġml": 7792,
      "Ġmel": 7793,
      "Ġment": 7794,
      "Ġmatt": 7795,
      "Ġmei": 7796,
      "Ġmiv": 7797,
      "Ġmight": 7798,
      "Ġmutter": 7799,
      "Ġmicro": 7800,
      "Ġhi": 7801,
      "Ġhow": 7802,
      "ĠhÃ¼": 7803,
      "Ġheb": 7804,
      "Ġhere": 7805,
      "Ġhehe": 7806,
      "Ġhigh": 7807,
      "Ġhtml": 7808,
      "Ġdc": 7809,
      "Ġdone": 7810,
      "Ġded": 7811,
      "Ġdoo": 7812,
      "Ġdol": 7813,
      "Ġother": 7814,
      "Ġomg": 7815,
      "Ġoida": 7816,
      "roll": 7817,
      "Ġey": 7818,
      "Ġele": 7819,
      "Ġeben": 7820,
      "Ġeta": 7821,
      "Ġehhh": 7822,
      "Ġeyyy": 7823,
      "Ġewnn": 7824,
      "Ġehrlich": 7825,
      "Ġnp": 7826,
      "Ġnon": 7827,
      "Ġnun": 7828,
      "Ġnop": 7829,
      "Ġnud": 7830,
      "Ġnuuh": 7831,
      "Ġwh": 7832,
      "Ġwi": 7833,
      "Ġwon": 7834,
      "Ġwich": 7835,
      "Ġwal": 7836,
      "Ġwom": 7837,
      "Ġwissen": 7838,
      "Ġwochen": 7839,
      "anten": 7840,
      "anig": 7841,
      "aned": 7842,
      "emin": 7843,
      "emie": 7844,
      "Ġbug": 7845,
      "Ġbma": 7846,
      "Ġbugs": 7847,
      "Ġbims": 7848,
      "Ġbarely": 7849,
      "Ġbwl": 7850,
      "alen": 7851,
      "ales": 7852,
      "alzen": 7853,
      "alitÃ¤t": 7854,
      "ous": 7855,
      "Ġcum": 7856,
      "Ġcaus": 7857,
      "Ġcrazy": 7858,
      "ionen": 7859,
      "kname": 7860,
      "ied": 7861,
      "iet": 7862,
      "ieve": 7863,
      "ieht": 7864,
      "lash": 7865,
      "lasse": 7866,
      "lasph": 7867,
      "verst": 7868,
      "Ġtheoretisch": 7869,
      "Ġconst": 7870,
      "Ġcontext": 7871,
      "Ġmeme": 7872,
      "lev": 7873,
      "least": 7874,
      "reich": 7875,
      "reel": 7876,
      "reise": 7877,
      "Ġgam": 7878,
      "Ġgatze": 7879,
      "Ġgold": 7880,
      "Ġguys": 7881,
      "Ġgimme": 7882,
      "adio": 7883,
      "lob": 7884,
      "loy": 7885,
      "losen": 7886,
      "aptu": 7887,
      "apdo": 7888,
      "elst": 7889,
      "elne": 7890,
      "ĠDon": 7891,
      "ĠDach": 7892,
      "ĠDoch": 7893,
      "ĠDay": 7894,
      "ĠDort": 7895,
      "ĠDeine": 7896,
      "ĠDienst": 7897,
      "ĠDurch": 7898,
      "ĠDorf": 7899,
      "bers": 7900,
      "appt": 7901,
      "kose": 7902,
      "komp": 7903,
      "urus": 7904,
      "urry": 7905,
      "urban": 7906,
      "Ġpra": 7907,
      "Ġpinn": 7908,
      "Ġpage": 7909,
      "ĠprÃ¼": 7910,
      "Ġpunk": 7911,
      "Ġpac": 7912,
      "Ġpiecewise": 7913,
      "Ġplay": 7914,
      "Ġpoh": 7915,
      "Ġpsy": 7916,
      "Ġhack": 7917,
      "Ġinhal": 7918,
      "Ġinform": 7919,
      "Ġinformation": 7920,
      "Ġbeten": 7921,
      "Ġbeste": 7922,
      "Ġbesp": 7923,
      "Ġbetter": 7924,
      "Ġbehold": 7925,
      "Ġbearbeiten": 7926,
      "ĠMich": 7927,
      "ĠMitt": 7928,
      "ĠMass": 7929,
      "ĠMache": 7930,
      "ĠMies": 7931,
      "ĠMusste": 7932,
      "ĠMissiles": 7933,
      "ĠMaschinen": 7934,
      "tti": 7935,
      "tting": 7936,
      "ttet": 7937,
      "steh": 7938,
      "stig": 7939,
      "stehen": 7940,
      "stray": 7941,
      "ided": 7942,
      "thom": 7943,
      "there": 7944,
      "thunger": 7945,
      "Ġstau": 7946,
      "Ġstill": 7947,
      "Ġstabil": 7948,
      "Ġstinkst": 7949,
      "ctiv": 7950,
      "fehl": 7951,
      "fehle": 7952,
      "fetti": 7953,
      "astik": 7954,
      "hole": 7955,
      "holt": 7956,
      "omb": 7957,
      "ommen": 7958,
      "4686": 7959,
      "46666": 7960,
      "Ġchar": 7961,
      "Ġcheb": 7962,
      "Ġchance": 7963,
      "Ġknapp": 7964,
      "Ġknicken": 7965,
      "Ġallen": 7966,
      "ĠpersÃ¶n": 7967,
      "8706": 7968,
      "8714": 7969,
      "Ġthats": 7970,
      "psum": 7971,
      "Ġichs": 7972,
      "itung": 7973,
      "itiv": 7974,
      "itlab": 7975,
      "bastian": 7976,
      "utzen": 7977,
      "utiger": 7978,
      "iffe": 7979,
      "7117": 7980,
      "1355": 7981,
      "1358": 7982,
      "13012": 7983,
      "13586": 7984,
      "Ġupsi": 7985,
      "uschen": 7986,
      "comput": 7987,
      "compiler": 7988,
      "arkose": 7989,
      "Ġkd": 7990,
      "Ġkei": 7991,
      "ĠkÃ¼r": 7992,
      "Ġkabel": 7993,
      "Ġkuchen": 7994,
      "Ġkennen": 7995,
      "Ġkatze": 7996,
      "Ġkinder": 7997,
      "Ġkrass": 7998,
      "Ġkills": 7999
    },
    "merges": [
      [
        "e",
        "r"
      ],
      [
        "o",
        "n"
      ],
      [
        "c",
        "h"
      ],
      [
        "i",
        "n"
      ],
      [
        "a",
        "s"
      ],
      [
        "o",
        "r"
      ],
      [
        "e",
        "n"
      ],
      [
        "Ġ",
        "s"
      ],
      [
        "v",
        "er"
      ],
      [
        "Ġ",
        "t"
      ],
      [
        "a",
        "t"
      ],
      [
        "Ġ",
        "a"
      ],
      [
        "i",
        "s"
      ],
      [
        "Ġt",
        "h"
      ],
      [
        "or",
        "d"
      ],
      [
        "Ġ",
        "m"
      ],
      [
        "Ġ",
        "h"
      ],
      [
        "l",
        "y"
      ],
      [
        "Ġ",
        "d"
      ],
      [
        "Ġ",
        "o"
      ],
      [
        "l",
        "ord"
      ],
      [
        "r",
        "o"
      ],
      [
        "Ġ",
        "e"
      ],
      [
        "Ġ",
        "n"
      ],
      [
        "Ġ",
        "w"
      ],
      [
        "Ġo",
        "f"
      ],
      [
        "k",
        "s"
      ],
      [
        "a",
        "n"
      ],
      [
        "k",
        "ro"
      ],
      [
        "kro",
        "ks"
      ],
      [
        "z",
        "on"
      ],
      [
        "ly",
        "kroks"
      ],
      [
        "zon",
        "lykroks"
      ],
      [
        "in",
        "g"
      ],
      [
        "e",
        "m"
      ],
      [
        "i",
        "ch"
      ],
      [
        "Ġ",
        "b"
      ],
      [
        "a",
        "l"
      ],
      [
        "o",
        "u"
      ],
      [
        "Ġ",
        "c"
      ],
      [
        "i",
        "on"
      ],
      [
        "k",
        "n"
      ],
      [
        "i",
        "k"
      ],
      [
        "i",
        "e"
      ],
      [
        "ver",
        "y"
      ],
      [
        "l",
        "as"
      ],
      [
        "at",
        "ion"
      ],
      [
        "ver",
        "s"
      ],
      [
        "er",
        "ver"
      ],
      [
        "ik",
        "las"
      ],
      [
        "Ġth",
        "e"
      ],
      [
        "Ġs",
        "erver"
      ],
      [
        "n",
        "iklas"
      ],
      [
        "Ġc",
        "on"
      ],
      [
        "Ġm",
        "em"
      ],
      [
        "Y",
        "ou"
      ],
      [
        "vers",
        "ation"
      ],
      [
        "Ġth",
        "is"
      ],
      [
        "Ġe",
        "very"
      ],
      [
        "Ġcon",
        "versation"
      ],
      [
        "n",
        "d"
      ],
      [
        "l",
        "e"
      ],
      [
        "r",
        "e"
      ],
      [
        "an",
        "n"
      ],
      [
        "Ġ",
        "g"
      ],
      [
        "a",
        "d"
      ],
      [
        "l",
        "o"
      ],
      [
        "a",
        "p"
      ],
      [
        "e",
        "l"
      ],
      [
        "Ġ",
        "D"
      ],
      [
        "b",
        "er"
      ],
      [
        "ap",
        "p"
      ],
      [
        "k",
        "o"
      ],
      [
        "u",
        "r"
      ],
      [
        "Ġ",
        "p"
      ],
      [
        "l",
        "l"
      ],
      [
        "Ġh",
        "a"
      ],
      [
        "Ġ",
        "in"
      ],
      [
        "ad",
        "ing"
      ],
      [
        "is",
        "c"
      ],
      [
        "Ġb",
        "e"
      ],
      [
        "lo",
        "ading"
      ],
      [
        "j",
        "a"
      ],
      [
        "isc",
        "ord"
      ],
      [
        "Ġ",
        "M"
      ],
      [
        "lord",
        "loading"
      ],
      [
        "t",
        "t"
      ],
      [
        "s",
        "t"
      ],
      [
        "i",
        "d"
      ],
      [
        "a",
        "ch"
      ],
      [
        "o",
        "w"
      ],
      [
        "t",
        "h"
      ],
      [
        "Ġs",
        "t"
      ],
      [
        "c",
        "t"
      ],
      [
        "on",
        "e"
      ],
      [
        "f",
        "e"
      ],
      [
        "<",
        "@"
      ],
      [
        "as",
        "t"
      ],
      [
        "app",
        "e"
      ],
      [
        "ko",
        "b"
      ],
      [
        "v",
        "e"
      ],
      [
        "kn",
        "appe"
      ],
      [
        "ja",
        "kob"
      ],
      [
        "u",
        "e"
      ],
      [
        "Ġs",
        "a"
      ],
      [
        "h",
        "o"
      ],
      [
        "o",
        "m"
      ],
      [
        "4",
        "6"
      ],
      [
        "Ġa",
        "nd"
      ],
      [
        "Ġ",
        "<@"
      ],
      [
        "al",
        "ly"
      ],
      [
        "Ġ",
        "ch"
      ],
      [
        "on",
        "t"
      ],
      [
        "Ġ",
        "kn"
      ],
      [
        "7",
        "7"
      ],
      [
        "at",
        "ch"
      ],
      [
        "Ġa",
        "ll"
      ],
      [
        "Ġp",
        "er"
      ],
      [
        "y",
        "le"
      ],
      [
        "ow",
        "s"
      ],
      [
        "ann",
        "el"
      ],
      [
        "8",
        "7"
      ],
      [
        "Ġn",
        "at"
      ],
      [
        "or",
        "y"
      ],
      [
        "Ġch",
        "annel"
      ],
      [
        "Ġh",
        "as"
      ],
      [
        "ĠD",
        "iscord"
      ],
      [
        "Ġmem",
        "ory"
      ],
      [
        "Ġst",
        "yle"
      ],
      [
        "C",
        "ont"
      ],
      [
        "Ġ",
        "You"
      ],
      [
        "Ġth",
        "at"
      ],
      [
        "Ġbe",
        "en"
      ],
      [
        "ĠM",
        "atch"
      ],
      [
        "in",
        "ue"
      ],
      [
        "Ġt",
        "one"
      ],
      [
        "Ġa",
        "re"
      ],
      [
        "Ġw",
        "ho"
      ],
      [
        "Ġha",
        "ve"
      ],
      [
        "th",
        "ing"
      ],
      [
        "fe",
        "ct"
      ],
      [
        "Ġsa",
        "id"
      ],
      [
        "Ġchannel",
        "s"
      ],
      [
        "Cont",
        "inue"
      ],
      [
        "Ġmem",
        "ber"
      ],
      [
        "Ġevery",
        "thing"
      ],
      [
        "ur",
        "ally"
      ],
      [
        "Ġkn",
        "ows"
      ],
      [
        "Ġper",
        "fect"
      ],
      [
        "Ġnat",
        "urally"
      ],
      [
        "p",
        "s"
      ],
      [
        "Ġ",
        "ich"
      ],
      [
        "i",
        "t"
      ],
      [
        ":",
        "/"
      ],
      [
        "b",
        "ast"
      ],
      [
        "is",
        "as"
      ],
      [
        "bast",
        "isas"
      ],
      [
        ":/",
        "/"
      ],
      [
        "tt",
        "ps"
      ],
      [
        "u",
        "t"
      ],
      [
        "i",
        "f"
      ],
      [
        "7",
        "1"
      ],
      [
        "1",
        "3"
      ],
      [
        "Ġ",
        "u"
      ],
      [
        "Ġh",
        "ttps"
      ],
      [
        "g",
        "if"
      ],
      [
        "u",
        "s"
      ],
      [
        "c",
        "om"
      ],
      [
        "a",
        "r"
      ],
      [
        "e",
        "t"
      ],
      [
        "Ġ",
        "k"
      ],
      [
        "i",
        "r"
      ],
      [
        "e",
        "in"
      ],
      [
        "Ġ",
        "S"
      ],
      [
        "3",
        "8"
      ],
      [
        "Ġ",
        "Ġ"
      ],
      [
        "c",
        "k"
      ],
      [
        "Ã",
        "¼"
      ],
      [
        "e",
        "h"
      ],
      [
        "e",
        "s"
      ],
      [
        "t",
        "en"
      ],
      [
        "4",
        "0"
      ],
      [
        "Ġ",
        "f"
      ],
      [
        "2",
        "8"
      ],
      [
        "Ġ",
        "A"
      ],
      [
        "Ġa",
        "u"
      ],
      [
        "Ġ",
        "I"
      ],
      [
        "u",
        "n"
      ],
      [
        "6",
        "6"
      ],
      [
        "Ã",
        "¤"
      ],
      [
        "4",
        "5"
      ],
      [
        "Ġ",
        "W"
      ],
      [
        "ich",
        "t"
      ],
      [
        "Ġ",
        "is"
      ],
      [
        "en",
        "t"
      ],
      [
        "m",
        "m"
      ],
      [
        "9",
        "0"
      ],
      [
        "o",
        "ch"
      ],
      [
        "Ġd",
        "a"
      ],
      [
        "Ġ",
        "z"
      ],
      [
        "Ġd",
        "as"
      ],
      [
        "v",
        "ie"
      ],
      [
        "Ġe",
        "in"
      ],
      [
        "5",
        "1"
      ],
      [
        "d",
        "er"
      ],
      [
        "2",
        "6"
      ],
      [
        "r",
        "a"
      ],
      [
        "Ġs",
        "ch"
      ],
      [
        "i",
        "g"
      ],
      [
        "0",
        "8"
      ],
      [
        "l",
        "u"
      ],
      [
        "46",
        "87"
      ],
      [
        "5",
        "0"
      ],
      [
        "Ġd",
        "ie"
      ],
      [
        "Ġ",
        "B"
      ],
      [
        "1",
        "9"
      ],
      [
        "vie",
        "w"
      ],
      [
        "1",
        "2"
      ],
      [
        "ten",
        "or"
      ],
      [
        "Ġs",
        "o"
      ],
      [
        "g",
        "en"
      ],
      [
        "Ġu",
        "nd"
      ],
      [
        "Ġn",
        "icht"
      ],
      [
        "z",
        "y"
      ],
      [
        "b",
        "e"
      ],
      [
        "Ġn",
        "och"
      ],
      [
        "g",
        "e"
      ],
      [
        "d",
        "as"
      ],
      [
        "Ġ",
        "j"
      ],
      [
        "Ġ",
        "v"
      ],
      [
        "lu",
        "zy"
      ],
      [
        "luzy",
        "y"
      ],
      [
        "at",
        "t"
      ],
      [
        "4",
        "3"
      ],
      [
        "46",
        "6"
      ],
      [
        "b",
        "en"
      ],
      [
        "28",
        "8"
      ],
      [
        "ĠI",
        "ch"
      ],
      [
        "51",
        "13"
      ],
      [
        "e",
        "d"
      ],
      [
        "1",
        "0"
      ],
      [
        "77",
        "71"
      ],
      [
        "45",
        "466"
      ],
      [
        "08",
        "288"
      ],
      [
        "5113",
        "08288"
      ],
      [
        "7771",
        "511308288"
      ],
      [
        "45466",
        "7771511308288"
      ],
      [
        "m",
        "ent"
      ],
      [
        "Ġ",
        "i"
      ],
      [
        "Ġd",
        "er"
      ],
      [
        "Ġ",
        "l"
      ],
      [
        "9",
        "4"
      ],
      [
        "a",
        "u"
      ],
      [
        "ach",
        "ment"
      ],
      [
        "att",
        "achment"
      ],
      [
        "Ġ",
        "K"
      ],
      [
        "e",
        "i"
      ],
      [
        "Ġis",
        "t"
      ],
      [
        "Ã",
        "¶"
      ],
      [
        "h",
        "r"
      ],
      [
        "6",
        "3"
      ],
      [
        "Ġau",
        "ch"
      ],
      [
        "e",
        "ut"
      ],
      [
        "d",
        "iscord"
      ],
      [
        "s",
        "ch"
      ],
      [
        "Ġd",
        "u"
      ],
      [
        "Ġ",
        "H"
      ],
      [
        "Ġ",
        "N"
      ],
      [
        "Ġz",
        "u"
      ],
      [
        "Ġ",
        "G"
      ],
      [
        "i",
        "er"
      ],
      [
        "attachment",
        "s"
      ],
      [
        "discord",
        "app"
      ],
      [
        "0",
        "6"
      ],
      [
        "z",
        "t"
      ],
      [
        "d",
        "e"
      ],
      [
        "Ġ",
        "J"
      ],
      [
        "t",
        "er"
      ],
      [
        "7",
        "6"
      ],
      [
        "Ġm",
        "ach"
      ],
      [
        "5",
        "2"
      ],
      [
        "Ġd",
        "ann"
      ],
      [
        "Ġ",
        "r"
      ],
      [
        "un",
        "g"
      ],
      [
        "u",
        "nd"
      ],
      [
        "Ġa",
        "ber"
      ],
      [
        "Ġw",
        "as"
      ],
      [
        "Ġd",
        "en"
      ],
      [
        "2",
        "0"
      ],
      [
        "ko",
        "mm"
      ],
      [
        "0",
        "90"
      ],
      [
        "Ġm",
        "al"
      ],
      [
        "Ġ",
        "T"
      ],
      [
        "t",
        "e"
      ],
      [
        "Ġw",
        "ie"
      ],
      [
        "Ã¼",
        "r"
      ],
      [
        "l",
        "ich"
      ],
      [
        "Ġ",
        "E"
      ],
      [
        "9",
        "3"
      ],
      [
        "87",
        "2"
      ],
      [
        "Ġ",
        "F"
      ],
      [
        "1",
        "8"
      ],
      [
        "Ġg",
        "eh"
      ],
      [
        "Ġa",
        "n"
      ],
      [
        "Ġb",
        "in"
      ],
      [
        "in",
        "d"
      ],
      [
        "Ġ",
        "er"
      ],
      [
        "eut",
        "e"
      ],
      [
        "7",
        "8"
      ],
      [
        "38",
        "4687"
      ],
      [
        "40",
        "4687"
      ],
      [
        "Ġau",
        "f"
      ],
      [
        "090",
        "404687"
      ],
      [
        "384687",
        "090404687"
      ],
      [
        "384687090404687",
        "872"
      ],
      [
        "Ġw",
        "ir"
      ],
      [
        "et",
        "zt"
      ],
      [
        "Ġm",
        "it"
      ],
      [
        "e",
        "it"
      ],
      [
        "Ġ",
        "re"
      ],
      [
        "Ġg",
        "e"
      ],
      [
        "Ġha",
        "b"
      ],
      [
        "d",
        "n"
      ],
      [
        "Ġ",
        "R"
      ],
      [
        "a",
        "g"
      ],
      [
        "en",
        "n"
      ],
      [
        "Ġ",
        "L"
      ],
      [
        "Ġa",
        "l"
      ],
      [
        "Ġ",
        "P"
      ],
      [
        "o",
        "o"
      ],
      [
        "us",
        "s"
      ],
      [
        "1",
        "6"
      ],
      [
        "c",
        "dn"
      ],
      [
        "al",
        "t"
      ],
      [
        "Ġn",
        "e"
      ],
      [
        "1",
        "7"
      ],
      [
        "5",
        "5"
      ],
      [
        "8",
        "66"
      ],
      [
        "Ġ",
        "komm"
      ],
      [
        "Ġo",
        "der"
      ],
      [
        "Ġb",
        "is"
      ],
      [
        "Ġk",
        "ann"
      ],
      [
        "26",
        "06"
      ],
      [
        "6",
        "19"
      ],
      [
        "s",
        "s"
      ],
      [
        "ie",
        "l"
      ],
      [
        "63",
        "71"
      ],
      [
        "o",
        "d"
      ],
      [
        "Ġ",
        "U"
      ],
      [
        "s",
        "o"
      ],
      [
        "Ġs",
        "p"
      ],
      [
        "Ġ",
        "ja"
      ],
      [
        "866",
        "6371"
      ],
      [
        "u",
        "m"
      ],
      [
        "Ġu",
        "n"
      ],
      [
        "9",
        "5"
      ],
      [
        "38",
        "43"
      ],
      [
        "2606",
        "8666371"
      ],
      [
        "619",
        "26068666371"
      ],
      [
        "3843",
        "61926068666371"
      ],
      [
        "ð",
        "Ł"
      ],
      [
        "1",
        "40"
      ],
      [
        "e",
        "g"
      ],
      [
        "3",
        "0"
      ],
      [
        "Ġm",
        "ein"
      ],
      [
        "Ġm",
        "ir"
      ],
      [
        "Ġj",
        "etzt"
      ],
      [
        "u",
        "ch"
      ],
      [
        "Ġh",
        "eute"
      ],
      [
        "an",
        "d"
      ],
      [
        "is",
        "ch"
      ],
      [
        "Ġa",
        "us"
      ],
      [
        "a",
        "m"
      ],
      [
        "o",
        "t"
      ],
      [
        "le",
        "ich"
      ],
      [
        "5",
        "8"
      ],
      [
        "ĠĠ",
        "Ġ"
      ],
      [
        "er",
        "n"
      ],
      [
        "Ã",
        "Ł"
      ],
      [
        "i",
        "b"
      ],
      [
        "Ġ",
        "1"
      ],
      [
        "i",
        "l"
      ],
      [
        "Ġe",
        "s"
      ],
      [
        "i",
        "m"
      ],
      [
        "s",
        "e"
      ],
      [
        "a",
        "b"
      ],
      [
        "Ġwie",
        "der"
      ],
      [
        "2",
        "3"
      ],
      [
        "Ġm",
        "uss"
      ],
      [
        "Ġgeh",
        "t"
      ],
      [
        "eh",
        "r"
      ],
      [
        "Ġ",
        "le"
      ],
      [
        ".",
        "."
      ],
      [
        "Ġf",
        "Ã¼r"
      ],
      [
        "i",
        "c"
      ],
      [
        "a",
        "ck"
      ],
      [
        "9",
        "8"
      ],
      [
        "m",
        "al"
      ],
      [
        "Ġ",
        "x"
      ],
      [
        "Ġsch",
        "on"
      ],
      [
        "Ġh",
        "at"
      ],
      [
        "9",
        "6"
      ],
      [
        "n",
        "et"
      ],
      [
        "h",
        "a"
      ],
      [
        "Ġv",
        "on"
      ],
      [
        "Ġ",
        "C"
      ],
      [
        "Ġg",
        "leich"
      ],
      [
        "i",
        "ll"
      ],
      [
        "Ġ",
        "O"
      ],
      [
        "i",
        "a"
      ],
      [
        "Ġw",
        "ar"
      ],
      [
        "ben",
        "d"
      ],
      [
        "1",
        "4"
      ],
      [
        "2",
        "2"
      ],
      [
        "ĠS",
        "t"
      ],
      [
        "f",
        "t"
      ],
      [
        "a",
        "hr"
      ],
      [
        "f",
        "ach"
      ],
      [
        "Ġk",
        "ein"
      ],
      [
        "k",
        "t"
      ],
      [
        "Ġa",
        "b"
      ],
      [
        "Ġm",
        "an"
      ],
      [
        "Ġw",
        "enn"
      ],
      [
        "el",
        "l"
      ],
      [
        "1",
        "12"
      ],
      [
        "a",
        "y"
      ],
      [
        "Ġ",
        "V"
      ],
      [
        "h",
        "er"
      ],
      [
        "c",
        "at"
      ],
      [
        "Ġn",
        "ur"
      ],
      [
        "i",
        "tt"
      ],
      [
        "o",
        "l"
      ],
      [
        "Ġ",
        "Z"
      ],
      [
        "al",
        "l"
      ],
      [
        "Ġg",
        "es"
      ],
      [
        "t",
        "s"
      ],
      [
        "Ġs",
        "ich"
      ],
      [
        "140",
        "50"
      ],
      [
        "o",
        "p"
      ],
      [
        "y",
        "ou"
      ],
      [
        "h",
        "n"
      ],
      [
        "Ġein",
        "fach"
      ],
      [
        "Ġg",
        "ut"
      ],
      [
        "5",
        "6"
      ],
      [
        "und",
        "e"
      ],
      [
        "Ġ",
        "ðŁ"
      ],
      [
        "4",
        "8"
      ],
      [
        "o",
        "ck"
      ],
      [
        "Ġm",
        "ich"
      ],
      [
        "4",
        "7"
      ],
      [
        "Ġi",
        "m"
      ],
      [
        "Ã¶",
        "n"
      ],
      [
        "93",
        "3"
      ],
      [
        "3",
        "94"
      ],
      [
        "I",
        "N"
      ],
      [
        "Ġ",
        "ver"
      ],
      [
        "Ġw",
        "er"
      ],
      [
        "â",
        "Ģ"
      ],
      [
        "Ġw",
        "o"
      ],
      [
        "77",
        "0"
      ],
      [
        "Ġs",
        "ind"
      ],
      [
        "ed",
        "ia"
      ],
      [
        "Ġbe",
        "i"
      ],
      [
        "in",
        "n"
      ],
      [
        "Ġn",
        "et"
      ],
      [
        "ad",
        "e"
      ],
      [
        "Ġer",
        "st"
      ],
      [
        "0",
        "0"
      ],
      [
        "i",
        "p"
      ],
      [
        "Ġ",
        "@"
      ],
      [
        "Ġu",
        "m"
      ],
      [
        "f",
        "f"
      ],
      [
        "Ġl",
        "an"
      ],
      [
        "Ġg",
        "r"
      ],
      [
        "0",
        "7"
      ],
      [
        "Ġs",
        "ie"
      ],
      [
        "Ġ",
        "?"
      ],
      [
        "ĠS",
        "ch"
      ],
      [
        "13",
        "94"
      ],
      [
        "m",
        "edia"
      ],
      [
        "112",
        "1394"
      ],
      [
        "933",
        "76"
      ],
      [
        "394",
        "770"
      ],
      [
        "1121394",
        "93376"
      ],
      [
        "394770",
        "112139493376"
      ],
      [
        "k",
        "e"
      ],
      [
        "h",
        "l"
      ],
      [
        "z",
        "z"
      ],
      [
        "5",
        "7"
      ],
      [
        "c",
        "e"
      ],
      [
        "e",
        "very"
      ],
      [
        "Ġh",
        "alt"
      ],
      [
        "Ġm",
        "s"
      ],
      [
        "Ġd",
        "ich"
      ],
      [
        "ei",
        "l"
      ],
      [
        "every",
        "one"
      ],
      [
        "ier",
        "t"
      ],
      [
        "Ġm",
        "in"
      ],
      [
        "3",
        "3"
      ],
      [
        "h",
        "e"
      ],
      [
        "i",
        "ck"
      ],
      [
        "2",
        "9"
      ],
      [
        "Ġmach",
        "en"
      ],
      [
        "8",
        "8"
      ],
      [
        "Ġd",
        "em"
      ],
      [
        "Ġr",
        "an"
      ],
      [
        "m",
        "od"
      ],
      [
        "le",
        "s"
      ],
      [
        "er",
        "t"
      ],
      [
        "au",
        "en"
      ],
      [
        "Ġn",
        "ach"
      ],
      [
        "ĠD",
        "as"
      ],
      [
        "st",
        "en"
      ],
      [
        "p",
        "iel"
      ],
      [
        "Ġm",
        "ehr"
      ],
      [
        "h",
        "ttps"
      ],
      [
        "m",
        "e"
      ],
      [
        "i",
        "x"
      ],
      [
        "an",
        "z"
      ],
      [
        "Ġv",
        "or"
      ],
      [
        "Ġi",
        "hr"
      ],
      [
        "ĠJ",
        "a"
      ],
      [
        "p",
        "ack"
      ],
      [
        "u",
        "ck"
      ],
      [
        "2",
        "19"
      ],
      [
        "Ġwir",
        "d"
      ],
      [
        "5",
        "3"
      ],
      [
        "Ġ",
        "10"
      ],
      [
        "Ġx",
        "D"
      ],
      [
        "Ġn",
        "en"
      ],
      [
        "Ġ",
        "2"
      ],
      [
        "as",
        "s"
      ],
      [
        "g",
        "t"
      ],
      [
        "u",
        "k"
      ],
      [
        "9",
        "7"
      ],
      [
        "l",
        "a"
      ],
      [
        "e",
        "e"
      ],
      [
        "w",
        "w"
      ],
      [
        "en",
        "d"
      ],
      [
        "Ã¼",
        "ber"
      ],
      [
        "u",
        "f"
      ],
      [
        "in",
        "e"
      ],
      [
        "Ġd",
        "ein"
      ],
      [
        "ĠĠ",
        "ĠĠ"
      ],
      [
        "Ã¶n",
        "n"
      ],
      [
        "Ġa",
        "m"
      ],
      [
        "ach",
        "t"
      ],
      [
        "mm",
        "er"
      ],
      [
        "Ġdas",
        "s"
      ],
      [
        "st",
        "e"
      ],
      [
        "ei",
        "ÃŁ"
      ],
      [
        "Ġ",
        "ra"
      ],
      [
        "ĠA",
        "bend"
      ],
      [
        "4",
        "4"
      ],
      [
        "ĠI",
        "n"
      ],
      [
        "alt",
        "v"
      ],
      [
        "eg",
        "altv"
      ],
      [
        "Ã¤",
        "ter"
      ],
      [
        "h",
        "h"
      ],
      [
        "ou",
        "t"
      ],
      [
        "ĠW",
        "as"
      ],
      [
        "ĠB",
        "in"
      ],
      [
        "..",
        "."
      ],
      [
        "s",
        "en"
      ],
      [
        "ch",
        "en"
      ],
      [
        "be",
        "it"
      ],
      [
        "w",
        "e"
      ],
      [
        "Ġe",
        "ig"
      ],
      [
        "at",
        "e"
      ],
      [
        "ĠK",
        "om"
      ],
      [
        "Ġun",
        "s"
      ],
      [
        "4",
        "2"
      ],
      [
        "an",
        "k"
      ],
      [
        "p",
        "ut"
      ],
      [
        "q",
        "u"
      ],
      [
        "Ġk",
        "Ã¶nn"
      ],
      [
        "7",
        "38"
      ],
      [
        "9",
        "1"
      ],
      [
        "u",
        "l"
      ],
      [
        "Ġa",
        "r"
      ],
      [
        "ĠA",
        "ber"
      ],
      [
        "ĠU",
        "nd"
      ],
      [
        "mod",
        "pack"
      ],
      [
        "Ġha",
        "ben"
      ],
      [
        "6",
        "12"
      ],
      [
        "Ġg",
        "en"
      ],
      [
        "ra",
        "uch"
      ],
      [
        "o",
        "s"
      ],
      [
        "Ġd",
        "r"
      ],
      [
        "modpack",
        "modpack"
      ],
      [
        "d",
        "en"
      ],
      [
        "z",
        "en"
      ],
      [
        "ĺ",
        "Ĥ"
      ],
      [
        "Ġh",
        "ast"
      ],
      [
        "87",
        "90"
      ],
      [
        "l",
        "au"
      ],
      [
        "3",
        "6"
      ],
      [
        "Ġp",
        "ro"
      ],
      [
        "a",
        "in"
      ],
      [
        "u",
        "g"
      ],
      [
        "Ġal",
        "so"
      ],
      [
        "Ġsp",
        "iel"
      ],
      [
        "Ġw",
        "ann"
      ],
      [
        "ĠW",
        "ie"
      ],
      [
        "em",
        "e"
      ],
      [
        "T",
        "E"
      ],
      [
        "ll",
        "t"
      ],
      [
        "lo",
        "s"
      ],
      [
        "f",
        "n"
      ],
      [
        "t",
        "ra"
      ],
      [
        "Ġs",
        "ein"
      ],
      [
        "78",
        "8790"
      ],
      [
        "14050",
        "788790"
      ],
      [
        "219",
        "612"
      ],
      [
        "14050788790",
        "219612"
      ],
      [
        "14050788790219612",
        "26"
      ],
      [
        "2",
        "7"
      ],
      [
        "a",
        "a"
      ],
      [
        "h",
        "t"
      ],
      [
        "a",
        "ct"
      ],
      [
        "a",
        "ge"
      ],
      [
        "50",
        "9"
      ],
      [
        "1",
        "5"
      ],
      [
        "s",
        "p"
      ],
      [
        "Ġ",
        "Ã¼ber"
      ],
      [
        "ĠA",
        "l"
      ],
      [
        "Ġo",
        "b"
      ],
      [
        "ock",
        "en"
      ],
      [
        "e",
        "b"
      ],
      [
        "Ġg",
        "ib"
      ],
      [
        "eh",
        "en"
      ],
      [
        "w",
        "ar"
      ],
      [
        "Ġ",
        "-"
      ],
      [
        "a",
        "k"
      ],
      [
        "b",
        "o"
      ],
      [
        "n",
        "o"
      ],
      [
        "t",
        "r"
      ],
      [
        "be",
        "i"
      ],
      [
        "s",
        "l"
      ],
      [
        "Ġ",
        "("
      ],
      [
        "Ġw",
        "en"
      ],
      [
        "i",
        "v"
      ],
      [
        "Ċ",
        "ĠĠĠ"
      ],
      [
        "ung",
        "s"
      ],
      [
        "out",
        "put"
      ],
      [
        "f",
        "en"
      ],
      [
        "k",
        "ind"
      ],
      [
        "n",
        "e"
      ],
      [
        "Ġ",
        "vie"
      ],
      [
        "b",
        "ow"
      ],
      [
        "Ġ",
        "*"
      ],
      [
        "is",
        "piel"
      ],
      [
        "Ġh",
        "al"
      ],
      [
        "Ġkein",
        "e"
      ],
      [
        "C",
        "A"
      ],
      [
        "p",
        "l"
      ],
      [
        "Ġd",
        "ir"
      ],
      [
        "30",
        "55"
      ],
      [
        "g",
        "er"
      ],
      [
        "or",
        "gen"
      ],
      [
        "un",
        "ge"
      ],
      [
        "ĠR",
        "e"
      ],
      [
        "Ġein",
        "e"
      ],
      [
        "2",
        "5"
      ],
      [
        "4",
        "76"
      ],
      [
        "7",
        "28"
      ],
      [
        "c",
        "be"
      ],
      [
        "is",
        "t"
      ],
      [
        "Ġh",
        "ier"
      ],
      [
        "fn",
        "cbe"
      ],
      [
        "ispiel",
        "kind"
      ],
      [
        "fncbe",
        "ispielkind"
[...]
